
/**
  ******************************************************************************
  * @file    network_data.c
  * @author  AST Embedded Analytics Research Platform
  * @date    Thu Jun  2 18:29:30 2022
  * @brief   AI Tool Automatic Code Generator for Embedded NN computing
  ******************************************************************************
  * @attention
  *
  * Copyright (c) 2021 STMicroelectronics.
  * All rights reserved.
  *
  * This software is licensed under terms that can be found in the LICENSE file
  * in the root directory of this software component.
  * If no LICENSE file comes with this software, it is provided AS-IS.
  ******************************************************************************
  */
#include "network_data.h"
#include "ai_platform_interface.h"

AI_API_DECLARE_BEGIN

AI_ALIGNED(32)
const ai_u64 s_network_network_weights_array_u64[ 81340 ] = {
  0xbe84620ebe9f345dU, 0x3ebeeeaf3e3b98acU, 0xbe1503f9be3e3f08U, 0xbda507aebe74eb95U,
  0x3ed08400be371e15U, 0xbe354034be4ee13aU, 0xbe23531bbed712d8U, 0x3f01a4803c9e99c7U,
  0x3e2d32a93e98feddU, 0xbdeea3b43e84989bU, 0x3e9f5c6f3ec91fe9U, 0xbde9443cbe0b7a47U,
  0xbb73f1763cb0d30fU, 0xbe1441f9be5f1226U, 0xbea531303d924395U, 0x3ec35142beba2dbeU,
  0xbdaffea3bdc495a2U, 0xbe9d8df43de1659cU, 0xbde1acecbe80b27eU, 0xbe6a4730bd154c7eU,
  0xbdcd9942be2d7c40U, 0xbe193f35be21dc41U, 0xbdab9bcdbdd2023fU, 0xbec1bc17bdbeb10eU,
  0xbecbf09a3f06d80aU, 0xbe7abef5bdc76178U, 0xbced13473e99e7ddU, 0xbeb9f0d53eaf6f0aU,
  0x3deb65083eb8ab0aU, 0xbb8544bcbec49a4bU, 0xbea92f46bdf2c5aaU, 0x3ebb21633e9d07d2U,
  0xbbb02065bc20481dU, 0xbb463da2bbc0db70U, 0x3d82df09bcd62853U, 0x3d1b09be3d0a0eddU,
  0xbcdf687fbb7f848cU, 0x3cf9f8efbbd1e24aU, 0xbcb7e1babd0679b4U, 0xbc5be6dfbc48588cU,
  0x3e0363423d8c5ddaU, 0x3de25e72be294804U, 0x3e6bf130be05b773U, 0x3e0277b8bdab8dc2U,
  0xbe4f91e73dd37f31U, 0xbd9588573d8a209fU, 0xbda2cf5e3cf70bb2U, 0x3cf6c1b43dcd0403U,
  0xbd678551bdc9e834U, 0xbc48c6cebda840c3U, 0xbdb0ae593e0f1541U, 0xbdd50bdebe1f40f3U,
  0x3e66cd393da1e506U, 0x3e435786ba45c034U, 0x3c060f2abdb735aeU, 0xbe023aff3da9a3e9U,
  0x3db7a4eb3dd29aa6U, 0xbd416c363dda5e29U, 0xbe85d9adbd8b0f9fU, 0xbe95683cbda413faU,
  0xbc88cd9b3d624bc2U, 0x3e05b4fcbda2d03eU, 0xbd43ee62be45d5b9U, 0xbd9c761ebdbc6c0aU,
  0xbdcd5f933e325b2fU, 0xbdcf6368bc38c52eU, 0xbe16607cbe0aa5bcU, 0x3dd60eae3bd0476cU,
  0x3dc239bdbe1fc091U, 0x3d0afadbbe5d4bd4U, 0xbc811ff2bd95cdc0U, 0x3e2972873e3090d6U,
  0xbd91718bbe1f114fU, 0xbe60ceb9be5e3803U, 0x3da751493d8d8b4aU, 0xbef6a19f3d5124ddU,
  0x3c381adabd5d220dU, 0xbe138052be7d1f5eU, 0xbd786153be8f1618U, 0xbe1db3f0bc945826U,
  0xbe67bb3ebe4d833fU, 0xbe141832bdec17bcU, 0x3d55ca033e2a770cU, 0xbd40127fbd3cd9c1U,
  0xbe2f90cc3cdbba33U, 0xbe883ab2be25e2d7U, 0xbd9fbe6f3d2ed068U, 0x3de3a310be1c7b8bU,
  0xbbac71ddbe223d16U, 0x3e23fd983df635e5U, 0x3b68b5993df66178U, 0xbed324e73dd9bd84U,
  0x3d128bf03e21bd06U, 0x3e349ab53d9a5fd0U, 0x3e1b005dbdb86e34U, 0x3e2a7ede3e0492bdU,
  0x3c304838be179e12U, 0xbdcc378e3dfbc034U, 0xbda0aa9a3e00b0f0U, 0xbde948f63e74f661U,
  0xbd08b212bd04bf5cU, 0x3e70023e3c333926U, 0xbc219f7c3bf820c7U, 0x3b2ad4c53cff630aU,
  0xbdefa817bee46e33U, 0x3d1aa637be412102U, 0x3da8df41bcdad71eU, 0x3d810ac2ba709070U,
  0xbe091e163d6460ffU, 0xbd3c0d7bbd0de185U, 0xbe08dc5cbe30f766U, 0xbde64b17bf0cd3ffU,
  0xbdc5be50bef93e10U, 0xbe28797ebd9ae5fbU, 0x3d8b2db8bebdb380U, 0x3da028903e76b074U,
  0xbe1a9923bc2ff5afU, 0x3cfcf587bc75bb17U, 0xbea05bafbe0c022eU, 0xbedcd122be2714c7U,
  0x3d110d9abed79228U, 0xbd62ccc6bed707c7U, 0x3d7cdf29be3402a4U, 0x3d9dcefa3df7526dU,
  0xbeaca384bdfcd201U, 0x3d1c4f42bea0b3c7U, 0x3dc8421bbd1596eaU, 0xbec14f11bec83cacU,
  0xbd6d806bbe5379d4U, 0xbcfcec25bd1baa20U, 0x3db25429be92ebdfU, 0x3e22c90d3caf51f8U,
  0xbd9db2b8bca07047U, 0x3d8137ffbe7020cdU, 0xbe68171c3e3e3eaaU, 0xbd9f46ccbec26f57U,
  0xbdb189f9be1461d0U, 0x3de534eabdbe5082U, 0x3e25aab7bda482b5U, 0x3e2edb0fbd16f669U,
  0xbe4815773c8e4fe6U, 0xbd21a22ebe4025abU, 0x3d9e2d6e3ea8f38aU, 0x3d098b143e62cb2aU,
  0xbdde1a263dcfc9d2U, 0x3eb8a2c13e9140d0U, 0x3e1f1764bd9627a7U, 0x3ddb3adfbbd88f6fU,
  0xbe80a487be966b0eU, 0xbe8b6ff8bd3f4b08U, 0xbe1dc4863d6a3111U, 0xbe01e4a33d84c1a9U,
  0xbdb7c87a3e4815c5U, 0x3e5441b0bd9b09ecU, 0xbe5c735bbe198df6U, 0x3e093b58bdd4bd86U,
  0xbd2ccd4e3d8a4d59U, 0xbd8f702fbde49445U, 0xbd8d135f3eb3cd88U, 0x3d23ded53d801b7aU,
  0x3d5c049f3cf81fbeU, 0x3e8439eebd8d176eU, 0xbe5858a63c75c784U, 0x3ead73333b1699c9U,
  0xbe303ecb3e2bd3b9U, 0xbb228efebc0a528fU, 0x3e932bb23e76f618U, 0x3d77bb3e3d800c4bU,
  0x3d1b7dd23e2fdd71U, 0xbcaa0a7c3dd70ed4U, 0x3df1aaa9bd0538c9U, 0x3b0833113d19a0c4U,
  0x3cb162a13e1e1480U, 0x3e23568bbcd5efc8U, 0x3de4d466bd5c6f75U, 0x3e5cbeb23dff6e9dU,
  0x3d711d8e3de0a1b5U, 0xbdc2e869be6dc852U, 0x3e00ae0fbdc5b9b0U, 0xbdbe60cd3d2ce14bU,
  0x3ddb1414bd75df5cU, 0x3d16e84abd305ebeU, 0x3aa9b0bebe39b2c4U, 0x3c19715f3e0937b0U,
  0x3dca38793db94f7aU, 0xbe00bce73d430cf5U, 0xbcd77872bd352f85U, 0xbd9c0749ba1fcf2eU,
  0xbdee5a82bdadb5b0U, 0xbdbcfa053de6ce9eU, 0xbd9cf59ebcad436dU, 0x3d93ef38bd455cc7U,
  0x3e1a66623de3c1feU, 0xbd3dd66a3d0083b2U, 0x3dec26a93dbe82d6U, 0xbe2f77fbbdecb527U,
  0x3e331000bda390fcU, 0xbd8bc90ebe2b1c37U, 0x3d1a7d44bdc5bd0dU, 0x3e0497ac3c7e922bU,
  0xbe156b703d421a7dU, 0x3c575450be02a48dU, 0x3e14fe1a3e26774eU, 0x3c8b50e03d04ab20U,
  0xbbfecfeabe260380U, 0xbe20c432bdbd38b0U, 0x3e8f24143d68a660U, 0xbe11fca13df96041U,
  0x3e01e92fbcfcd0afU, 0x3e7bf778be83b256U, 0xbdfdf3ab3d9e70f0U, 0xbcba07ddbe64d852U,
  0xbcf8b2d23cf6bca3U, 0xbe4ec9a0bd0fef17U, 0xbe22ca98be1758e7U, 0xbde4de09bcd3ba9fU,
  0x3e69c6e33de5105dU, 0x3d8d84f73dc0b72cU, 0x3b92b4a33e2c691aU, 0xbd61a8813e52bca0U,
  0x3e4ebf9dbd8f2755U, 0xbd7483a23b7bfef0U, 0x3daec214bc92b55eU, 0x3e208bb43e4add65U,
  0xbe76fe2f3dc23532U, 0x3c65e0a43d3487caU, 0xbda56348bde6e0eeU, 0x3dedf4b5bdc4ea55U,
  0xbe4b9e9dbe4ecf35U, 0xbeb6bb6cbe57678eU, 0x3e0951dabe050c7bU, 0x3da8971f3d998548U,
  0xbe1624d33c47948fU, 0xbe7dd56bbe7e8127U, 0x3d18d769bd80925eU, 0x3e175911bd96d239U,
  0xbe25d0a63e35fa27U, 0x3dbaf387be2e0d65U, 0x3d86ae283ec59aeeU, 0xbcc517743e319315U,
  0xbd8c92713c2fae9cU, 0x3e6f387dbbe663b8U, 0xbe819805bd3fb92bU, 0x3e29fc2dbe1b8c24U,
  0x3d9133c8be1dcba9U, 0xbe814f68bc325bb3U, 0x3d4a59ec3ebdab56U, 0xbd4c84993e5529d8U,
  0x3da692b53d03dc0aU, 0xbe2d8ca4be3d51cdU, 0xbd857ef0be727937U, 0x3ecd54a53cf1cb80U,
  0xbd4552843dc2e1c2U, 0xbdcb28eabdce09edU, 0x3cc6ef813e06cfbbU, 0x3d8d61283de1e9d3U,
  0x3cd9fd74be454416U, 0xbd5b48c83e8822d3U, 0xbe6df99fbd61fd3aU, 0xbdf66908bd405766U,
  0xbd11a252be66b5e5U, 0xbddd4f943db228ceU, 0x3deb8869be882731U, 0x39e404ae3e120fa3U,
  0xbdf3feeabd133265U, 0x3cfc7e843bb0128eU, 0x3e16696f3e237d49U, 0xbe2025c13ca0f270U,
  0xbd589e773dadbbadU, 0xbdc6d7273cddbf1bU, 0x3e04857bbcd5a60aU, 0x3dca31d4bc226297U,
  0xbc6411943d1edca3U, 0x3cd56c38be5f97c0U, 0xbde8b7783dfc6dbdU, 0xbe618fe23e128820U,
  0xbd5afb66bdb2919fU, 0xbd494966bc8f16a1U, 0xbd973d803cf886f0U, 0xbdaef9f83e1a0271U,
  0xbd393986bda90f3fU, 0x3ca65f1ebd445c2aU, 0x3e2350d2be06b2d7U, 0xbe31b5e53d1487f6U,
  0x3de2e2ef3b8379bcU, 0xbe20a7b73dba47b1U, 0xbe61baaf3d100f1bU, 0xbe74dd143e0ece5cU,
  0x3ac4a175be71445cU, 0x3c809f513d7bc820U, 0x3d421caebd68b4a0U, 0x3da9bcb8bd585263U,
  0xbc9cbc713cccc311U, 0xbcceca263da5451fU, 0xbe1793a63d7484ebU, 0xbd98f94fbd911d1cU,
  0xbb11056b3dcc4fd1U, 0x3e1213c43d71d20bU, 0x3d5ab4d83d8db941U, 0x3dcf3d04be056751U,
  0x3dc9d9853cf4795eU, 0xbc4ac28cbe4129a7U, 0xbe0d52f0bdd0f594U, 0x3e3eba923e36746dU,
  0xbc169b033e1593d8U, 0xbd20192fbe829f5aU, 0xbdc05533be3957a6U, 0x3d090963bc44b8d9U,
  0xbd9b8c383d230b27U, 0xbd30027a3de6c066U, 0xbe601b3dbe5bf450U, 0xbdd783443d17ed4fU,
  0xbe2876a53e11ce5bU, 0xbddbe4803d6fd6c9U, 0x3d5e09eebe3e5f37U, 0x3d8222f5bd1797a8U,
  0x3d9e6f6a3da22692U, 0xbc128c83be3157a7U, 0xbd75167fbd798560U, 0xbe09d5c03d89f612U,
  0xbd9aa1153e40e5a9U, 0xbc3f98103b3fab0aU, 0x3dba7a753d61e66aU, 0x3d3dd7573e390e6aU,
  0x3d968c31be41b73cU, 0x3da34c263b9ef024U, 0xbd03f16abdf0eba5U, 0x3e4530f23d7f2592U,
  0xbdde8651bceff64bU, 0x3ea33025bd9cb8f3U, 0xbd9ff9b2bcde2fb4U, 0x3b6053d3bd88231fU,
  0x3e09fca3bd0d163eU, 0x3df4b1793d795018U, 0xbe474854be94741aU, 0xbe4744923dc921b4U,
  0xbe43ab34bd575bd5U, 0xbe7f103a3e421f7bU, 0x3e240bdf3e157631U, 0xbe2347e4be8c9ed6U,
  0xbdce3966bc54cab4U, 0xbdfd00b8bc245ac8U, 0x3e258ab43debdd13U, 0xbd8006dcbd8faab4U,
  0xbc2232373da724e1U, 0x3da08c58bda2f9fcU, 0x3b1a4575be18a8f1U, 0xbd2b9cf2bde7b0d4U,
  0xbdf12b99bd9fa595U, 0xbd554d0cbe2ba40cU, 0xbe0b2342be441467U, 0xbdcf5470bea8f8d9U,
  0xbe6dfd6abe2f6533U, 0xbe0349ef3e69b17fU, 0x3ddaa6e3bd4ed232U, 0xbe661e94bb476cbaU,
  0x3e20ca4b3dc01f64U, 0x3e4c03efbde1dc0dU, 0x3e40cc2f3e213a80U, 0xbe1dbcf43daf92c0U,
  0x3d349dbf3e0733bdU, 0x3d889dc23e18130dU, 0x3e5bddb2be0776aeU, 0xbea74d4b3e068334U,
  0x3dbb9971bd8f214bU, 0xbc9ac9d7be38a2c1U, 0xbe683b6bbe861af1U, 0xbcab83113e680cc1U,
  0x3d10f1b13d15859dU, 0x3d8a3a683e2bb7cdU, 0xbd749a51be5857c1U, 0xbe8e4358bc06d1cfU,
  0xbcb605dabdc95d1cU, 0x3dfe286abd807074U, 0xbe8a06ddbe734413U, 0x3e1c15073d5517e5U,
  0xbe252c4f3e3b1b89U, 0x3d19ceba3dca42f2U, 0x3de28842bd9f8e3dU, 0xbe4a942f3e174dbcU,
  0x3c81d060bd1f2017U, 0x3e17abadbdd6da6fU, 0xbe5ea10bbebb5c74U, 0x3e78ee953e2526f4U,
  0xbd663d923eb5a2edU, 0x3eb1b2c3bdc0b1b4U, 0xbce6e8f5be67a724U, 0xbda754c0bd1d04fdU,
  0xbda64a443de39c58U, 0x3da7fc8abd73ef66U, 0xbe0a37d4bd9fe7e3U, 0x3e7350b8bca00bc7U,
  0xbceb7cec3ddf41a5U, 0x3dce13803dc20209U, 0xbe842383be60c073U, 0x3dcf4c4f3e0fb3c0U,
  0x3d868fd13d58de5bU, 0xbd2beb7bbda22546U, 0xbe84c4a9be23e713U, 0x3e46635dbe4efe16U,
  0x3de21a723dddee9eU, 0x3e2de43d3c8242e7U, 0xbe369e59be3aca09U, 0x3bf818d4bdf2a0c8U,
  0x3de2b3bb3d1982fcU, 0x3ddb0a9abcee6b00U, 0xbbcf5a89bc5c6b6eU, 0x3ce3a593be82c4e9U,
  0xbd081336bd9b9af0U, 0x3e26b44fbe796e9dU, 0x3e4790cdbc8d7a2dU, 0x3d1298b6bdddbb10U,
  0x3db8c559be14d2ebU, 0xbe525ef33d02b18aU, 0xbe6ddc8bbeb9f1b8U, 0xbdb29e213daa46b9U,
  0x3d3725553e5dcd29U, 0x3d2ca20e3c0f3767U, 0x3e119da8bd8d99cfU, 0x3e36c8f6be295008U,
  0xbb3d2305bd659b3aU, 0xbd4c328fbd4586b6U, 0x3c18405abe963ee2U, 0x3bf278373daa1cf5U,
  0x3e71ae823ddf586dU, 0x3e2473673e7b914cU, 0x3dd5c75b3e11dcf9U, 0x3e1f37db3cccd134U,
  0x3e0a64fdbd909d2fU, 0x3d5b84743c637cf7U, 0x3dd895c63ec9bdc1U, 0x3dae18873aa03042U,
  0xbdfbb19f3cd995e1U, 0x3e4420ae3e868bccU, 0x3e53886c3df1db64U, 0x3daaaa89be87841dU,
  0xbe3e4e68bccf9c22U, 0xbda945e4be5066d2U, 0x3e4335a73e344fb7U, 0x3cbefdfa3e9b3f81U,
  0xbe2fc4473d4bfac8U, 0xbbfdb9c03e0e1168U, 0xbbc06c0e3dca4a94U, 0xbec3eee1beb86f28U,
  0xbd5aa9cabeac7803U, 0xbe885a90be20575eU, 0xbd887cd93e46ee3eU, 0x3dcf47f7be5a4946U,
  0xbe89eeccbe8e29a3U, 0xbbfec9013dfb5981U, 0xbe276881bd19fefcU, 0xbe287812bec4725eU,
  0xbe65b515bebd4df6U, 0xbf068d1abe7f7ee7U, 0x3dd4d3cfbd165d1cU, 0xbd5dc7b9bd8e4b31U,
  0x3e8187c53b6207beU, 0x3e2de08e3caa7532U, 0xbe9265dbbca0a891U, 0xbde115f8bd33ba6dU,
  0x3e37d94a3d204115U, 0x3e59a3e13e2c739dU, 0xbdea2156be5a2e4bU, 0x3e00ad9dbea37b7fU,
  0x3ddc8b193e624a91U, 0xb8f598b1bd99545dU, 0xbe3ab400bbc79c88U, 0xbe51e729bcfc479bU,
  0xbe040f32bd40f9bcU, 0x3c4c18253d74c275U, 0xbd8b3ed2bedde895U, 0x3e1ce83cbd8a3a4aU,
  0xbe5acc763e393b6aU, 0xbc18e41b3cbad1c5U, 0x3e11f0f73c9eb2e7U, 0xbe43c546be08bd78U,
  0xbe6282cdbe070122U, 0xbd67ed0bbe2faecaU, 0xbe56a855be49f617U, 0x3e46cccdbdca3b91U,
  0xbd9305003c9cc3deU, 0x3e2aed34be0dd003U, 0x3dcd3fd33e1d47abU, 0x3aadce52be7d7d18U,
  0xbe50938c3d36784cU, 0x3c110730bd3fa9aaU, 0x3d8fccfcbec0e918U, 0x3e232fd8bdf5053fU,
  0xbe72a815be3e9c4bU, 0xbeda2cb13d1c3d7bU, 0x3e5ca4eabd32e6c4U, 0xbe742e77be332328U,
  0xbe6cf035be20256dU, 0xbe424b6ebd8dc738U, 0xbd42b154bea5ccddU, 0xbe8a84a83d44e9d4U,
  0xbeee951cbd562732U, 0xbd38d5bcbe46b7a9U, 0xbe412bec3d6d624aU, 0xbcd971d7be561180U,
  0xbe9a4e11be15ccdcU, 0xbe8d8717bed959d1U, 0xbd905dfebee89347U, 0x3cb862bdbdf4eadcU,
  0x3d5c82dd3ed2aa9cU, 0x3e5a87d63df8d168U, 0x3df32905bdf880f5U, 0xbe86526b3d6bea3dU,
  0x3deca5963d8862afU, 0x3ca9e582bbd45c47U, 0x3c9d3252bca592a3U, 0x3dd55a303cf907e2U,
  0x3e6f32f9bdcfd999U, 0xbd24975d3e6d42ddU, 0x3e1c9081bdc47442U, 0xbe532c363e95478fU,
  0x3d8d046c3e630fdfU, 0x3ee7592e3e4387bcU, 0xbbedf233bd069e0cU, 0xbe9ebea63e581f0bU,
  0x3e05c79a3e669c6fU, 0x3d5c45d0bbe44fe4U, 0x3ded715c3e6ceb00U, 0xbdee4698bdd05f8cU,
  0x3e1d9dcd3dd14794U, 0x3e3735363e861b35U, 0x3d735cd7be213a3aU, 0xbc2e34c43e15a725U,
  0x3d579ceb3d0ba6c4U, 0x3d22c8823de7430dU, 0xbe426f113e010b2bU, 0x3d481a4fbb9316d2U,
  0x3dad7c533e575548U, 0xbdbd09a13e10054aU, 0xbe1906e7be574aacU, 0xbcc5e31bbd7aa119U,
  0xbdc4b1c23e1400e9U, 0x3d0f517a3b4f994aU, 0x3e11724cbd91840eU, 0xbda9fcfbbcc68accU,
  0xbd80566b3d8cf5eaU, 0x3ade5d753e206615U, 0x3de82313be8b6a1cU, 0xbb6a35d83e1ff54bU,
  0xbe732ba0be0dd303U, 0x3ca6640bbde66158U, 0x3e066aa5be271198U, 0xbe8351f6be5217bcU,
  0x3d71cd5bbe4313f5U, 0xbeb14167be67894aU, 0xbe4b2964bdbe42e6U, 0xbce00844bceaf63dU,
  0xbe1a179d3de41412U, 0xbe043249be388c65U, 0x3d778b373db386deU, 0xbd836761bc00a6d2U,
  0xbe0a57ecbd72298bU, 0x3dea1a453dc867c0U, 0x3e5b91c43e7e641aU, 0x3d9625e43d3a939dU,
  0xbe0c7f763d3c660aU, 0x3d7b42683dd45f12U, 0x3cb1dfc53cc141ccU, 0xbdf6ec70be40f45cU,
  0xbc35bfd7be057312U, 0xbcf1b6763d8bbd43U, 0x3dc752babe0e4c46U, 0xbd0ca4133e058448U,
  0x3da9fe3ebdc61fd5U, 0xbe20156abdf4a404U, 0xbe3672fa3d5c3b28U, 0x3c606329bc3df7e6U,
  0xbe3e4c293d7d6117U, 0xbe52176e3d15c663U, 0x3dd5fcf23e0701c1U, 0xbc91c8e33db0e22fU,
  0xbc90f8d33e228f07U, 0xbd6354903dcad229U, 0xbd61b6953e0f1563U, 0xbe54f8083dbe8e63U,
  0xbe25f567be053a86U, 0x3dfa2b81bda83c6dU, 0xbdf5f7e4be629c05U, 0xbd25ba23bdbf3d9aU,
  0xbe37d6aa3c45d844U, 0x3d882c6d3e799a6aU, 0xbe0307bdbdb203cfU, 0x3e1aa554bc520eb5U,
  0xbda48468bd4012aaU, 0xbe0df8743db65642U, 0x3dc8f0f83e0f00d3U, 0x3c85c82d3cb254ceU,
  0xbcdaa1203dd05b41U, 0xbda3efb8bda0d2d6U, 0x3dd2f931be545308U, 0x3e3b2de8bd49875dU,
  0x3d835f513dea3315U, 0xbd14ffb93d04281dU, 0x3e5f60bb3e8999c6U, 0x3da200233e49fc0dU,
  0xbe6fa3613de81c8fU, 0xbe0bbe7d3dad9674U, 0xbe204ec5be8e6723U, 0x3e873e1ebda952faU,
  0xbde2cc603cb7ebeeU, 0xbe1dd3563dd8cc60U, 0xbe098c373e0b7960U, 0xbdb86b5b3dcf3cceU,
  0xbe2eef07bda8b3a0U, 0x3e1560a93e2803a3U, 0xbe5f09313d0add6eU, 0x3e6b5bfebde6569cU,
  0x3d2368633be1da11U, 0xbca59eccbc9b626aU, 0xbccbfde23e1730baU, 0xbd86b0f93de030faU,
  0x3dbe28eebc4cf804U, 0x3d3810dc3e5045c4U, 0xbde611d4bddd5c1aU, 0x3dc9baaa3e1c074dU,
  0xbdd15aa53dc22d89U, 0x3c1817f7be00330eU, 0xbcebc8723e40fc54U, 0x3e054152bc94a20bU,
  0xbd98ce4abd15e310U, 0xbe577f253c817988U, 0xbe8c9c41be3c6b08U, 0x3df07a83bde4e8daU,
  0x3e3209a83dcd2578U, 0x3c2aeaf63e5fb0a5U, 0x3e189bba3d195792U, 0xbd0b02573ab044cfU,
  0x3e0c8d18be65d674U, 0xbd75481c3d9b988dU, 0xbe96d150bd36e8b4U, 0x3e5c7c2dbda94232U,
  0xbd0987743e008fecU, 0x3de43f3e3e01fd93U, 0xbd7cca0abcec5195U, 0xbdc46d52bbf0bac1U,
  0x3c3d84fabe20df5dU, 0x3d2704693d20cc6dU, 0xbe9db9e2be554a7dU, 0xbdad7b28bd633102U,
  0x3e308e433dc69762U, 0xbd8ef1e23e1951c3U, 0x3e046df2bdb248fbU, 0xbd2fec903cc99656U,
  0xbd9d3116bbf07dceU, 0x3d4988333c65f2f3U, 0x3d60717f3dacd0bdU, 0x3d6d025f3e1bc6b1U,
  0x3e381a193df87917U, 0xbdc4498abccf2c2aU, 0xbda874c93c489d40U, 0xbe0b31073e3473e8U,
  0xbe135780bc052a0eU, 0xbe2e0d7e3e1c1c05U, 0xbd9f1f32bd2b2d5aU, 0xbe7672893cc48f61U,
  0x3e2850673d434f8fU, 0xbcbaa5e03e27ac93U, 0x3d137e7a3b86f892U, 0xbd94f4acbb797713U,
  0xbdb48a053c2b2e7bU, 0x3cb250713e4bb524U, 0xbd8d71eebe19b2c5U, 0x3d13fc7fbda8d579U,
  0xbda8782cbe0f5e79U, 0xbde326593dcbdf74U, 0xbe1f5b11be24ed14U, 0xbddf0770bd5b1526U,
  0x3d1c6584be099987U, 0xbd87149dbe028accU, 0xbd14f2d13cf4b3f1U, 0xbd76d5f73df8893bU,
  0x3e17f2d9be01d425U, 0xbdcf77953e142d19U, 0xbe61a217be259d5cU, 0x3d8e171e3e4fe74cU,
  0xbd4ee3ce3de1c14eU, 0x3e0570813e207bf8U, 0x3e1a436e3d28eeafU, 0xbe8fd1c7bdabe0eeU,
  0x3d85e9233de5618fU, 0x3e1e2cb0bdb5c77aU, 0x3da4e698be320037U, 0xbe7a6d573e707c38U,
  0x3d949f0e3dced529U, 0xbd01a9a63e13e6cbU, 0xbd864414bcd1aa64U, 0xbd99509a3e48cac7U,
  0xbe238f4fbe79a4c7U, 0xbe4639ccbe013a5eU, 0xbdd4ce80be84ee2bU, 0xbd6174a03e115f72U,
  0x3def866ebe34ea02U, 0xbcad123e3cbc6507U, 0xbe436265becf5dc6U, 0x3d9c5abebdb74af2U,
  0xbd4bd8edbc8db4daU, 0x3c52bc50bb99dde2U, 0xbea83a80be053d42U, 0xbe2546ac3d1828c2U,
  0x3d42fb90ba845f30U, 0x3da0880cbdeda334U, 0x3d6ecf6ebe2eb4efU, 0xbe51af08bdb9a3fdU,
  0x3d3bbf213e2b6ffbU, 0x3e1af95b3d9c72f5U, 0xbea26330bdb3e7c8U, 0xbd97b6763d17786fU,
  0x3e34cc63be0542efU, 0x3de67e46bd41c31dU, 0xbedc72f4bdd16247U, 0x3d73a8b33e08a78aU,
  0xbde9b5853dc8d56fU, 0xbd9af66b3e3a0497U, 0x3dea6f533e958d86U, 0xbd7167a7be12b9b6U,
  0x3d89780cbe29f6e6U, 0xbe07c3f5bda8052aU, 0xbef3adb8bdf2e1ecU, 0x3e84dd9d3cc55ee2U,
  0xbd89327f3e8934b2U, 0x3e4a0cac3e1937caU, 0x3de7fa553e9360a3U, 0xbdb02f4abe9ba7f0U,
  0x3e6f5650bdc77040U, 0xbd40cb62bcf5eba5U, 0xbee3e092bdd72f5dU, 0x3d8c3da33ddfa4b4U,
  0x3e169d1a3d8a8e87U, 0x3e2a9f553dd99b30U, 0x3c8d1a98bd664e5aU, 0xbe28045abda0a6ffU,
  0xbd83c282be7afdc2U, 0xbe0cd306bd833890U, 0xbe72e4253c67d8d7U, 0x3df631bdbdd00d4aU,
  0x3cb9ccf63dccfca1U, 0x3d957367be16df50U, 0x3cb724ea3d26c455U, 0xbe80f6053c45f57aU,
  0xbe1c8c90be4aec17U, 0xbed93861be043dd4U, 0x3d3843edbd4c79a3U, 0xbef757b7be50c009U,
  0xbe169fefbdb591bbU, 0xbdf9a7b7bed34f5bU, 0x3e4fcd713e2dd8deU, 0xbd878dfcbda670ceU,
  0x3ceb81d3be8f4270U, 0xbf435c11bd071ad4U, 0x3e412d803dcc63e3U, 0xbeb7d8d7bd14000cU,
  0x3e20425bbc71f604U, 0xbde0fef5bd9a2c48U, 0x3e057d82bc235084U, 0xbc9e24a93de9206dU,
  0xbe9667e43da1de8cU, 0xbeac318ebd16dfadU, 0x3e5114883e22521aU, 0xbeda45a1be23ec7eU,
  0xbe7bdb8fbebae4e6U, 0xbe61f065bcbfcd30U, 0x3e03aa49be89cc3eU, 0x3e6a015ebe653945U,
  0xbe460d32be1119c3U, 0xbe974be9bead8e8dU, 0x3e520f6b3e2a3c0dU, 0xbe2c6dccbe8657f0U,
  0xbec5cd45bdb84df1U, 0xbe25d2e5be92b294U, 0x3cae87bebe88979eU, 0x3dec0951be102a0eU,
  0x3df7f3cebd63dde2U, 0xbeaa9e7bbe2076c4U, 0x3e49502d3d2313f3U, 0xbe9a63e33ce20edbU,
  0xbcf642cdbd2026a1U, 0xbd10da7cbce929ccU, 0x3e2692053d900eaeU, 0xbd9c36fdbcbead51U,
  0xbe1b8c48be4834c3U, 0xbd3c7f473d5d5149U, 0x3d29b802bdb6a901U, 0xbe6ffa17bc96b336U,
  0xbe6bb138beb29912U, 0xbe437ea0be692c47U, 0x3dcc187dbe82e7e9U, 0xbdc410c2bd8022a6U,
  0xbe581af6be0f1bb1U, 0xbdb232fcbdc11f04U, 0x3d756f373e62487dU, 0xbedb74b0be79ac16U,
  0xbe8dca55bda6edf5U, 0xbe972bffbeaa2d76U, 0x3db44a8abe3934efU, 0xbcf261fdbc52d9eeU,
  0xba973efd3cc577a0U, 0xbd893473bc25380aU, 0x3e26c4a3bdcf4aadU, 0xbe09e665be40b0d8U,
  0xbde498f73cf136daU, 0xbd2e60f3bdc07f2aU, 0x3d408471bead3d66U, 0x3d110d20be26282fU,
  0xbe3308863d780d13U, 0x3df979aabd88053eU, 0x3cffee263df26a41U, 0xbe682186bdb105e1U,
  0xbda9c66e3dbcfb34U, 0x3cc557ad3df110a5U, 0x3bcb17b43d2d4cd5U, 0xbe1338da3e706b05U,
  0xbde233963c964258U, 0x3c9d6898bdc523ceU, 0x3daa74eb3d8bf243U, 0xbe9849a53dace585U,
  0xbdb0fd7cbd2cbe22U, 0x3e1968ca3e243401U, 0xbe0ff8453e1137a4U, 0xbd64d18abe1433afU,
  0xbdb4fd503d693ceaU, 0xbd3860fa3d883ed7U, 0x3de08340be9f9313U, 0xbcf175b5bd28e116U,
  0x3dd426a4be01cea8U, 0x3d9a9fe13e1ef9fcU, 0xbdcf096bbd9259d3U, 0xbc8fe40b3d8446e4U,
  0x3de7d6423e19d23dU, 0xbd4bf3cd3d48ddccU, 0x3dd55126be82b6a0U, 0xbc897ea43d94b4e6U,
  0xbd5d60613db1bd8eU, 0x3d94967ebda380e2U, 0xbe41452c3d56d574U, 0xbe7f1c703d3ee6c4U,
  0xbd5f93e93e129738U, 0x3e373fbfbe81f664U, 0xbd60bff43de2b315U, 0x3df42804be102ffbU,
  0xbe1b2d223dbcd229U, 0xbdedff54be944d91U, 0x3dff820f3eaa7addU, 0xbe181dc2bd5c2904U,
  0xbd80d6303ce30968U, 0xbcf9579a3df36e1bU, 0x3dff0c4a3b4aa89eU, 0x3d400576be0e87a8U,
  0xbe73f811bbec8e37U, 0xbe2beb31be77f841U, 0xbb5256d5bdd956f3U, 0xbe1b35cb3e095e87U,
  0x3c73dedc3c20358bU, 0x3e79b8923deedee5U, 0xbe0926bb3e12ec8eU, 0x3e3cac273d884b2fU,
  0xbdb6bf473e429dacU, 0x3ce584bbbe379592U, 0x3e3388a33ed57c09U, 0xbd2061fa3e239d8cU,
  0x3d7b2a613c912171U, 0x3e78504a3e0ca41dU, 0xbd8e3f13bd1a4a94U, 0x3d9f9e853e2471b1U,
  0xbdde48943ce2fccdU, 0xbe23f6d0bd8753d6U, 0x3c275f343ceb52e8U, 0x3dffc6233e165ccdU,
  0x3da053893e5ad461U, 0x3e09d57ebe029164U, 0x3dd991a83c1152ebU, 0xbe7b1e6ebcc8ebabU,
  0xbd6791e5be1b63caU, 0xbd4f7440bc25f135U, 0xbe0c663e3c8dad1cU, 0x3e0d04e83e2c7a8fU,
  0xbe6aece6be298d5dU, 0x3d708f3fbdfd1660U, 0x3d34047d3e14a743U, 0xbe01c8c73d92c051U,
  0x3cbc76f7bcbd0f8dU, 0xbe317dab3d8513eeU, 0x3e23a57b3e04da1fU, 0xbdfddf813e5acd07U,
  0xbdb2c6923e28f1c2U, 0x3e300cafbe1d0c0aU, 0xbe8b062dbe8d8d01U, 0xbd03a0d3be2e0a50U,
  0xbcaa56543d836cb0U, 0x3d825f663dba48bbU, 0xbe8fb9f8be45bfc7U, 0x3c91aa56be5e1af6U,
  0x3d2219323e3a242aU, 0x3d106cc6bdd2d049U, 0xbe6632f2be9134f1U, 0xbc4555cbbdc9984aU,
  0x3c1c01a43cd9afd8U, 0x3cc52fcbbbe09c65U, 0x3d7385bc3d4d8e19U, 0x3e0162d3bcd613c5U,
  0xbe4391a6be1f8bb4U, 0xbde355813e12d269U, 0xba2ac16e3ce10db4U, 0xbe9a583a3dae5dacU,
  0xbd5ab4b4be56b8bdU, 0xbe463be9bd5fff83U, 0xbdcbe300bd41b8e2U, 0x3e8d73bb3e375088U,
  0xbe0385943e355061U, 0x3e29a3563e27b6cfU, 0x3e23c3333d281b6eU, 0xbd7d94f63dc35a4bU,
  0x3dd560a9bdf2356eU, 0xbe279fc23d9a66dbU, 0x3d6f2d08bd838aedU, 0x3e578f103e8b9d2bU,
  0x3d6c0c52bd410b3eU, 0xbd4d95ebbc7cded1U, 0x3e3b5ac93dd9f598U, 0xbeb850c63d556115U,
  0xbd9eb9043daba87aU, 0x3b8047b93d9fa648U, 0xbe54c91ebe801217U, 0xbda6a9473d88e0a5U,
  0x3e15d9ddbd88af93U, 0x3dd98af43dc60d49U, 0xbd935ff63d3eb57cU, 0xbe8a21ef3e0a61edU,
  0x3e03f88c3d11e7e4U, 0xbd1de2d73e0f2326U, 0xbd4d86d43c39e9f4U, 0xbc0bc21cbd1c40a9U,
  0x3e26f1c63dd4cc43U, 0x3cadeada3d8415d7U, 0xbeb3663fbe6f9fc8U, 0x3dc7f22f3d6f1f7eU,
  0x3db6796bbde8e661U, 0x3cbcdcefbcfae16dU, 0x3c890cd73e642370U, 0xbe2dde943d6bf752U,
  0xbbe11cd2bd44f2a3U, 0xbe3d0b92bd790f1eU, 0xbe521ee0be74befcU, 0x3e7fcc0abd7e5c12U,
  0xbc10203a3e46f9bcU, 0x3dec7b7f3e539053U, 0x3d983fa63dba8c24U, 0xbb74cf5abc9375daU,
  0x3e0b66d4be6226e4U, 0x3bacaf91bd01135fU, 0xbecc5ef6be15a771U, 0x3ca2fea93e189332U,
  0xbd596c543dc38356U, 0xbd16092e3e0496efU, 0x3d8d978b3dcde4e9U, 0xbe070129bd528d1fU,
  0xbddf00f9bc17d27dU, 0xbbb21ed03dac57f3U, 0xbe28da20be667566U, 0x3e317d623d0dbb39U,
  0xbc28f8d83d323d6cU, 0xbd8ee9f13c6a3c7eU, 0x3dfa37673d59a580U, 0xbe572656bda9c9d4U,
  0xbe3a9af6bd71db23U, 0x3e2c6c1d3e0437dcU, 0x3d461faf3e14b70bU, 0x3e2b0efbbe374e72U,
  0xbb605ba3be0534bdU, 0xbdfd57e6be4c63bbU, 0x3e069dfd3e6432b3U, 0xbd80cb313e4b1db1U,
  0xbd955cab3e4efbfeU, 0x3e90ffc23e98c242U, 0x3e0e3da6be27361fU, 0x3e9977c0be3e6090U,
  0xbaee4db73d27459aU, 0xbe81fd3bbe237477U, 0xbe2f7d3d3d4ff178U, 0xbd71570e3ee1c1c8U,
  0xbe91f5da3d45517cU, 0x3eab763dbe18db5bU, 0xbd6703f7be5abf3eU, 0x3e7399e0be8fa07aU,
  0xbe781548bcb6e97eU, 0xbe687111be194007U, 0x3e2574e93e81fc71U, 0xbe3109d73cff08c9U,
  0x3d7db5453e28e86cU, 0x3d93e69c3db30bb5U, 0xbe125995bc970520U, 0x3da520ebbd705256U,
  0x3cdd07043d270afdU, 0xbe07147e3b9e9192U, 0x3e21d8843dc7955fU, 0xbe3341c7bda1614cU,
  0x3c0a87d0bb039278U, 0x3e7a1f943dd7f6deU, 0xbdaf56c6bd5eeaedU, 0x3dd8d8843e0b53e8U,
  0x3d552cc4be1a5b6bU, 0xbd3a7d89be3e3c92U, 0xbd208e823da3d949U, 0xbebc80f9bdff2893U,
  0xbdb02e0f3d9a13a0U, 0x3dcc3a61be27149bU, 0xbea606a0be47ed81U, 0x3e4039853d58068eU,
  0xbe5fb1493d076416U, 0x3d81ebf53ca6860bU, 0x3e1fb3db3d82be86U, 0xbe3ed5edbe9f5aeeU,
  0x3b8f6999be977767U, 0x3cc361193d41fa26U, 0xbda5e8173dbd9221U, 0x3d186810bdc04e16U,
  0xbdb72829bdd1ba27U, 0xbc88393b3db49560U, 0x3c4e2e323e3ec811U, 0xbe91ba8fbe91ddaeU,
  0x3d1c9505bea45871U, 0x3e50fee9bda795cbU, 0xbe072c0abe14df85U, 0x3e70166e3e07e5feU,
  0x3c7b67aebe0b2fd2U, 0x3dbc9b9ebdf88977U, 0x3ccf8ba7bddd9e92U, 0xbec50af7be0d7238U,
  0x3e7c20a43e856eb5U, 0x3e69ac813d9c2050U, 0xbe90ee37be1779cbU, 0x3db9107bbdb1d660U,
  0x3cc4584abd0de901U, 0x3e07139abd2cac12U, 0xbe181c18be795c2dU, 0x3e1805043cf6b61dU,
  0x3d8712fa3e891b7bU, 0x3ea86ac73e80ebc7U, 0xbe9b747dbde587feU, 0x3ca2a7c5bd7bd1faU,
  0xbced93863e0f00b0U, 0x3d9902783db9f62dU, 0xbd2c3115be5c2ed7U, 0x3e25a53cbc911d16U,
  0xbe74a61c3e605f15U, 0xbd1209773d4b021aU, 0x3d877a2dbe8586c2U, 0x3de2c9cdbe3b2975U,
  0xbd2f0bdebea27c95U, 0xbe962c10be5028d1U, 0xbe636eacbe5caed1U, 0xbd1e01733c8dbd1fU,
  0xbe6758dc3cd24a10U, 0x3e8c0b7ebea7d2d2U, 0x3e0503803d38a6b2U, 0x3e3570b5be81821dU,
  0x3c6178ffbcdc3e28U, 0xbe961fc0bd75d921U, 0xbded6d27be0c9c5fU, 0x3d95a39c3e8b2089U,
  0xbda6bad1bd5a2bedU, 0xbcb458c03e55c4efU, 0xbdcd4a97be0a5d08U, 0xbdae0d4c3c847a2fU,
  0xbcabf6a2bd027dd8U, 0xbba95f99bc06dcaaU, 0xbc38dc64bd76748fU, 0xbdafceeabcdd185fU,
  0xbcde36b1bd97bb7fU, 0xbd757a993bc9ec58U, 0x3d12d9a3bca9e51cU, 0x3d75ca633dd6cf3dU,
  0xbd5b69fcbdaf00f6U, 0xbdbcac7a3d2ccb11U, 0xbcb4d9d93aa63331U, 0x3c8e07103d7864ecU,
  0xbf055ce4bf068bc0U, 0xbf02ff2cbf042e08U, 0xbf002a97bf01d305U, 0xbefc6a34beff3b76U,
  0xbef84466befaaed0U, 0xbef31097bef5c22eU, 0xbeee7e90bef05952U, 0xbee99799beebccfeU,
  0xbee42b94bee7601cU, 0xbee06729bee2d960U, 0xbedb88cdbede3d97U, 0xbed6dc7cbed98582U,
  0xbed1f18fbed46321U, 0xbecd2d42becf9b84U, 0xbec7f9a7beca8411U, 0xbec40943bec6f409U,
  0xbebf103bbec26847U, 0xbebaf07cbebcbd29U, 0xbeb62c32beb822afU, 0xbeb16a82beb43c52U,
  0xbeac1126beaea629U, 0xbea761d1bea9baeaU, 0xbea2a59dbea577aaU, 0xbe9ea659bea09368U,
  0xbe990d99be9b9602U, 0xbe93a9c6be96309cU, 0xbe8f9366be91f3d0U, 0xbe8b149cbe8d1884U,
  0xbe86413ebe88c708U, 0xbe8172aabe83f826U, 0xbe7a731cbe7e5b93U, 0xbe70f295be75807cU,
  0xbe661e78be6bb5a8U, 0xbe5caf54be6170adU, 0xbe53a96abe57fef6U, 0xbe499489be4e8e25U,
  0xbe404307be4510adU, 0xbe36c1c1be3b7a3bU, 0xbe2d6b2fbe3232c4U, 0xbe238ceebe286b2cU,
  0xbe1a5808be1f03cbU, 0xbe110e94be15c022U, 0xbe07a775be0c5480U, 0xbdfc56abbe02da63U,
  0xbde9439dbdf2b688U, 0xbdd650c0bddfb56fU, 0xbdc36c47bdcce3deU, 0xbdb04269bdb9d2bfU,
  0xbd9d556fbda6f01aU, 0xbd8aa172bd93f913U, 0xbd6f9a48bd813562U, 0xbd49618abd5c78ebU,
  0xbd229e7abd3622bcU, 0xbcf2d88ebd0e5469U, 0xbcaf4cf1bcd1adc7U, 0xbc4d5d25bc8b7833U,
  0xbb5d70a3bc0284abU, 0x3bba0ba53a9cb3a5U, 0x3c69a1fd3c249158U, 0x3cbdf5383c95236fU,
  0x3d075e903ce6c30aU, 0x3d2e2a4c3d1b10ddU, 0x3d53e9653d41068eU, 0x3d79f0433d66c42eU,
  0x3d8fdad93d86607fU, 0x3da2e2a93d9966deU, 0x3db576143dac4fdaU, 0x3dc885793dbef036U,
  0x3ddb749c3dd22871U, 0x3ded93bd3de46353U, 0x3e005b563df728f1U, 0x3e09de473e0517afU,
  0x3e13306c3e0e77f1U, 0x3e1c921f3e180777U, 0x3e2643313e2150f4U, 0x3e30102d3e2b5d34U,
  0x3e398af83e34ea2bU, 0x3e42716e3e3dd914U, 0x3e4bbfad3e472597U, 0x3e5507213e504f9eU,
  0x3e5f6e543e5a112bU, 0x3e68cd0e3e648ae3U, 0x3e71cd5f3e6d3d09U, 0x3e7bfc513e76d152U,
  0x3e82dc013e80612eU, 0x3e87a1163e85b93bU, 0x3e8b8ad73e899afaU, 0x3e90edb43e8e687dU,
  0x3e95c2303e935d2fU, 0x3e9af97e3e9867cbU, 0x3e9f14183e9cef29U, 0x3ea4161e3ea17f8aU,
  0x3ea929b43ea6cfaaU, 0x3eacef8b3eaaf6d5U, 0x3eb1d06c3eb001d0U, 0x3eb72e243eb4e1e9U,
  0x3ebb04b03eb9335fU, 0x3ec0fbda3ebe6bb1U, 0x3ec516233ec2ad55U, 0x3ec9af7d3ec78126U,
  0x3ece85533ecc3d8aU, 0x3ed2b81f3ed05dbeU, 0x3ed6a6883ed4d47bU, 0x3edcb2603edaae4fU,
  0x3ee22bb53edefccaU, 0x3ee57af43ee33277U, 0x3eeac1233ee7ae1cU, 0x3ef0bf4e3eed3b94U,
  0x3ef3c3eb3ef1d375U, 0x3ef937493ef71423U, 0x3efdbc323efb9fb4U, 0x3f01b70d3f00a7d7U,
  0x3f03c8dd3f0274ceU, 0x3f0567343f048b8fU, 0x3f085f1a3f06eb84U, 0x3f0aed423f09650cU,
  0x3f0d0b713f0b8308U, 0x3f0f76ca3f0eb57bU, 0x3f1256d43f104f63U, 0x3f13e5d43f136f11U,
  0x3f16916b3f1569d6U, 0x3f18ef233f178007U, 0x3f1be22b3f1a26e6U, 0x3f1daa933f1c7bb7U,
  0x3f20084c3f1e8cacU, 0x3f223ff43f213728U, 0x3f24c3bc3f2394e0U, 0x3f2721743f25f298U,
  0x7b957869926f7073U, 0x82757e7c7c87867aU, 0x6e5d56896b5b787cU, 0x9b6a94677d8f8967U,
  0x69a577768d6d7e6dU, 0x7d7d797e78766a79U, 0x776655646b698886U, 0x866aac666d7a8976U,
  0x729a7679a66a6e6fU, 0x78766c787b818575U, 0x6d5e676e776f7672U, 0x836f966576927160U,
  0x75837c758e74616fU, 0x67628088787d777aU, 0x725f6b7c72698082U, 0x837b926d6f8a8373U,
  0x71907773866e7370U, 0x80826d7c7f848877U, 0x71786c726d6f7a73U, 0x876d816b718f8387U,
  0x77957b6aa673726fU, 0x7d727c6b777a7479U, 0x706e6879645b7478U, 0x8a618a6581788a79U,
  0x6c797c71806e6768U, 0x6b867b7a847c777dU, 0x65626b6e68717a70U, 0x91678869757c7b6cU,
  0x709a77748e727476U, 0x7f7379747e7f6b6eU, 0x666d746b686e7a7eU, 0x8a668b676e93815fU,
  0x6d776b7984756f79U, 0x8176917b7b7c6f73U, 0x7173687180756f77U, 0x82758d6b6d7e706cU,
  0x74796d6d8a68776fU, 0x6c7b7479787a7778U, 0x7071697e717a7373U, 0x7872877069786b77U,
  0x6e7b77726f6c7d6fU, 0x6986647870766473U, 0x6d6b7272656f6f75U, 0x796f7e6c7577886eU,
  0x6c8965708a6b7174U, 0x76758172886c7781U, 0x716f6a766b728574U, 0x8f727f666a787776U,
  0x6d7174727167767eU, 0x756f88778b80787dU, 0x7b78666e78767371U, 0x886c807b687b7273U,
  0x6c7067737f736b60U, 0x7f697f717e7d7966U, 0x6f766a756f7b7578U, 0x8772726b6e7a8f70U,
  0x6f7e7169876e7c65U, 0x6a8d7d6c6c77786aU, 0x746b676e74737c7aU, 0x726b7369787d7e78U,
  0x6f947c73776c7179U, 0x67777c7873737871U, 0x6a6369747a746c7cU, 0x89687d667d817c74U,
  0x7987707885797071U, 0x81798076826d7880U, 0x6d64646469647682U, 0x956a8d70707a776dU,
  0x7b87697a7c6b6b6cU, 0x7d6b7d847e6a797dU, 0x7172686c7b67787cU, 0x89729a6675738572U,
  0x636c726b7e686d7bU, 0x8670777888866d75U, 0x6b636d76766a737aU, 0x8a7c83737d7d7e67U,
  0x8070648180737077U, 0x886884717b887570U, 0x6b64606776647c64U, 0x8c65826565847677U,
  0x758d7877906e6d6fU, 0x816f6f6c746b8669U, 0x7672626d6f677d74U, 0x857b8a6e79958b74U,
  0x6d75896c867a8077U, 0x6b6a76797670727dU, 0x737b636a746f7367U, 0x85748a6d758a7a77U,
  0x6c81797470786e78U, 0x70787f6c7c666d6dU, 0x76665c6364717879U, 0x7d718a67786b856aU,
  0x63777676786f747cU, 0x6984737c85897b79U, 0x6d676b726b70807aU, 0x8d70836b68788b6eU,
  0x6c7075708e7c7a77U, 0x5e7b686379656e71U, 0x6862767f71746979U, 0x6b68787378768367U,
  0x6b7b707b7278806dU, 0x74757b757e697a7bU, 0x687e686f706e7b7aU, 0x7b796c6a766f7576U,
  0x76806c7090757777U, 0x7b607272766f6d78U, 0x786b7473766f7174U, 0x856f8770786b8e6fU,
  0x6775756c82737b74U, 0x607a6a6d7f787382U, 0x655f64727570807bU, 0x8077886f6f7f8a6cU,
  0x787e776f7f746777U, 0x6b6b646d7d838084U, 0x7d696d796b80806dU, 0x866b756d708d8774U,
  0x7b8f6d72a8777b78U, 0x5e797e707a83707bU, 0x736a6b7c71717074U, 0x8e6b8b78768d797dU,
  0x7395867c97727981U, 0x81866e747b8b6a7eU, 0x6d6b74747b627482U, 0x8973846c728e8271U,
  0x7c7b6e6783777e6fU, 0x73728573817b7a7cU, 0x7b726c746b7d8174U, 0x8c7970706e64706fU,
  0x6c8b747884727e79U, 0x7f7a77788a787879U, 0x727672856c75896cU, 0x93718a77787a787bU,
  0x727f74707375746fU, 0x7f628e72876a7e81U, 0x787270767374796fU, 0x9372787d7379736eU,
  0x6d7973727e776f73U, 0x7b78846a837b6e7fU, 0x6d746e768178827dU, 0x9262726c6f79836fU,
  0x74906b759a7c7075U, 0x8a67766a84868381U, 0x78696d7075698372U, 0x8e709373708e7970U,
  0x73776c8287757d79U, 0x747a6e7283687873U, 0x736a80787377757aU, 0x747778727586896eU,
  0x807c6a737e7c7e6cU, 0x7c8789717f87847fU, 0x6d746f7e797a786dU, 0x977869786c7b8073U,
  0x76917f708d7a7c7eU, 0x80706f74887f7379U, 0x827164726a68897dU, 0x7f668371767a7e78U,
  0x76837377907a7869U, 0x94848d798f6a8c7dU, 0x6b60686f7f6d7d64U, 0xa47c87697874816bU,
  0x5e8170749b766f6dU, 0x74708a74738c7f78U, 0x7367657b6e6e7783U, 0x7f6f8666728d816eU,
  0x70a27a6d93757d79U, 0x616b7b6b7f836f78U, 0x6364727e6d6d7760U, 0x8c7c836f677c7677U,
  0x718b766b7a798171U, 0x857d7e74877a8474U, 0x7b716e6f6b687677U, 0x916672707f817c6fU,
  0x8083897d7e7b7b72U, 0x8685807991887786U, 0x6d6a596e7e768476U, 0x8e7477656e837e73U,
  0x777d787d877a7a76U, 0x7a71817287776d7aU, 0x79696f6271627e71U, 0x956f876e6c79876cU,
  0x75826c778a786d76U, 0x6f6b818474706f70U, 0x6f6e6c6463707284U, 0x7076817e637a7f72U,
  0x6b887b7a80727c64U, 0x65796b6878738a77U, 0x657366718177827eU, 0x76728576726f786cU,
  0x6f86787c856f856fU, 0x7071708374736171U, 0x786e706f70656f6eU, 0x8078945a6b8f7073U,
  0x7b787c749a776d74U, 0x6c6d74817e857682U, 0x727e6b666b6d7f70U, 0x7b677a7b63958b7aU,
  0x7f9379628a77726dU, 0x797973806d7c6e7dU, 0x7a826d52727e7f80U, 0x767c7c775d7a7c83U,
  0x7282766a86707175U, 0x717773847a6d6a6fU, 0x717b865a6d7c7280U, 0x72828480746d8576U,
  0x7075628280896a73U, 0x6a77856b9078757bU, 0x776b78757b83737cU, 0x8a747a77817b7c76U,
  0x6b7a767a855b6f68U, 0x6e907687887a7986U, 0x73806c5d7a7d8678U, 0x867279747a957872U,
  0x798370788064777bU, 0x807e756c7a7e7678U, 0x787c705f726a6e8bU, 0x806f786b7b758476U,
  0x768c7e736d77776cU, 0x826c7b6f686f6c7eU, 0x7671767f82707f78U, 0x767a7d7679666d72U,
  0x7473697665806881U, 0x737b7d7d79607d6bU, 0x726e7776767e7b72U, 0x737871848673696eU,
  0x71816f8168737078U, 0x7c8a8871798d917eU, 0x7d8e72816a707b66U, 0x7e7d687283836574U,
  0x68807573776a7c74U, 0x827c787b74707072U, 0x7c8276716f666d77U, 0x6e806d5e76706177U,
  0x707b787b79707779U, 0x7e7e6873668c6772U, 0x7870707f74647177U, 0x5b7a6e707370706eU,
  0x7975637273727b77U, 0x6a6f7b6d7386816dU, 0x7c71798278706f61U, 0x7370606d70756577U,
  0x6f726c66676d846aU, 0x7490747c746e8d71U, 0x757677796e717e62U, 0x727c6d7183725d71U,
  0x7b786d786d646a72U, 0x73706a6c7173716cU, 0x787b7f6e6d74777eU, 0x71816c79726d6f6fU,
  0x6e6d617565696f78U, 0x6a757f5c6d776479U, 0x746f7a7d6e6e6874U, 0x7382717768787374U,
  0x735f6b6966606c7cU, 0x6f8a8263827d7375U, 0x6f7088716e717462U, 0x7b84676e73765f7dU,
  0x6b656168555e7b73U, 0x81996f5d70777870U, 0x82727a87736f6852U, 0x7382627470775d73U,
  0x746f6f6969577a69U, 0x767a82726d6f6764U, 0x7672856b74716a6dU, 0x7578676a7c616072U,
  0x68686d6e6b6a6b7cU, 0x7d73806c7c7f7671U, 0x6b687f787177726aU, 0x7f876c806c696b6cU,
  0x6f756a6e636b636bU, 0x886a8b71847a6d7eU, 0x696c7b7168736d5dU, 0x7c7c7a7469786260U,
  0x71566865665f7b74U, 0x726a81857f6c7f6bU, 0x7a6a71736b7a7962U, 0x768c7473766f6373U,
  0x726875627063706eU, 0x728f727179757a75U, 0x7076787a6f76726bU, 0x68817f7778867669U,
  0x70768075665b8a79U, 0x748e696d67787f78U, 0x707e7a76736f716bU, 0x618069757b76686aU,
  0x6f74776f69637265U, 0x7f747873766b7873U, 0x7b69756e666d636dU, 0x7d746a787a676965U,
  0x79626d6378666975U, 0x7c677e717f6a776fU, 0x7c69766e72686974U, 0x6e8b7e6f76716767U,
  0x6a616e61745a7971U, 0x66727865776b886dU, 0x735f7b6c7579616dU, 0x748973807d71746dU,
  0x6a716d6a64657865U, 0x6a8e71766c747762U, 0x6a767376785e6979U, 0x6e82706c7f686677U,
  0x6e6f667468656f77U, 0x628066626465726fU, 0x686c6e816f765c6eU, 0x597b617484646378U,
  0x796665606c5b7667U, 0x688a79676c667569U, 0x736d7f6775686860U, 0x737a6e777c6e736cU,
  0x7b736a72725f717bU, 0x667a777e73727b6aU, 0x616f826b6e836968U, 0x69866a7d6c61636eU,
  0x6e796f64555e736fU, 0x736a6e606966706cU, 0x6e68747676856770U, 0x6285687f6669687aU,
  0x6a6a626b6469746eU, 0x776778705d6d6e64U, 0x626980786f73676aU, 0x647d5e7d666f6370U,
  0x726473785e597084U, 0x76886e6c6b7e8669U, 0x6261737772766964U, 0x6681586b7a856477U,
  0x8170607b695c8366U, 0x747673696b727077U, 0x69697b7b716a776fU, 0x75816c7d816a6673U,
  0x7d69757c715c8069U, 0x70626a7367746e6dU, 0x786b87737b816c6eU, 0x6f93617d7f6f5a6fU,
  0x6c6f785e61586e76U, 0x6679755f786d696aU, 0x6662816a6b806268U, 0x717d5d7d75565d6aU,
  0x6a7e4e71706a7c70U, 0x6a73886c7d78766fU, 0x6364795f706d6b6cU, 0x7792767875736164U,
  0x796a74807b6e6e67U, 0x7072696b857e6a71U, 0x6c637c7379776f65U, 0x7a82707f78757070U,
  0x87786a6b67698078U, 0x6a7d6b6a6b72816cU, 0x6771898574867357U, 0x5f8776816c736b78U,
  0x74747262625f7a75U, 0x6f8b6f686074766eU, 0x7765847d827b6471U, 0x68866a7a6f696673U,
  0x79697b747b747475U, 0x6b737b63707f6f7bU, 0x6f5e7a8072607569U, 0x73816e6d6b707484U,
  0x747a6477626e7079U, 0x70807669727b6a70U, 0x6a65776d6e746d6eU, 0x6a896b717d776f7aU,
  0x69746b66745d746dU, 0x71818a6878756c71U, 0x6e6d816e737f7567U, 0x7f835f845d6c646eU,
  0x6b6c706e78587665U, 0x6f9c7d616a786771U, 0x6a56747b6e6e695aU, 0x798a88727b63626aU,
  0x6c736c69745c7371U, 0x6f727b7970876d78U, 0x6c6e757c6e777863U, 0x7b847977697c6471U,
  0x6c8566787e77697aU, 0x7575805b7785757dU, 0x6558697174616c75U, 0x797a78736d808266U,
  0x656f6e7273607667U, 0x897d7f6a7a7a6a75U, 0x6e60736c72706461U, 0x7b7a6f7674766170U,
  0x6f6560746f697b75U, 0x6a68806871696378U, 0x7372836c6f6f6370U, 0x7b886d7a70736c6bU,
  0x7473636c5a718162U, 0x8779746674696668U, 0x767187727d826968U, 0x7387707c6f687473U,
  0x6e7b6a6c626f6971U, 0x6e6d87867d6e8072U, 0x6f78755d79777867U, 0x778b5d73776d6e78U,
  0x787c8479677f6665U, 0x786a7877757f696eU, 0x78776973706a6a79U, 0x777c686a78786e6bU,
  0x6a6673737d596e61U, 0x7a6b83817a75686bU, 0x707b68786b667277U, 0x718573766a707062U,
  0x68797d7386447373U, 0x736a727671867a6cU, 0x6d72776d76736c72U, 0x72776e6a698a6164U,
  0x696a78766f56836eU, 0x7581737969757572U, 0x87706879736e6c66U, 0x74786a6575786866U,
  0x687179756c5b7a64U, 0x76787e757e6a6f74U, 0x6e7e646c6c686570U, 0x7369656c77766d68U,
  0x6f7085794b668461U, 0x776977777257827aU, 0x7e92645b785b756dU, 0x75737669605f7956U,
  0x666079745067696cU, 0x9b777c7c8154737aU, 0x7f805a666a656c79U, 0x72735d645f63685fU,
  0x645f7f71556a6d6cU, 0x86615f726e59786aU, 0x7e8760606a67686cU, 0x7573676e625e725bU,
  0x59657c7b6c7a6e69U, 0x846b698579577867U, 0x8287615a5d546881U, 0x6f576a5f7e677154U,
  0x686d7a74806f7b66U, 0x66825c94575d8663U, 0x877e438264465e8cU, 0x684e694772626c52U,
  0x77659f6561917662U, 0x729157875466875fU, 0x847f4979604d637bU, 0x585b725976717164U,
  0x6a6a8d677474775eU, 0x737f688a5e5b845dU, 0x6d7f597962596187U, 0x6e617d5e795f7055U,
  0x676f85767a75735cU, 0x7c7e718d5f728060U, 0x82874d6c63545a86U, 0x6765705570636657U,
  0x625d826069728260U, 0x718b758e5c648864U, 0x827a4d6c5e525a80U, 0x585c62597c718360U,
  0x685d8b69767a7053U, 0x688069795e7c785bU, 0x7a75515f655d5672U, 0x5d4c6c4c7b736a6bU,
  0x6652706257846859U, 0x72846e875e5d8061U, 0x6d864e69544b5776U, 0x60656c597863775eU,
  0x765e86666c7c695fU, 0x6e836d826c6bae62U, 0x726f3e68654c546eU, 0x6f5b6b516b646b55U,
  0x705b7c706c75776bU, 0x6e727174605e816cU, 0x7172486a695b628aU, 0x6660814a7e6f8360U,
  0x775c8b785d8c6f71U, 0x829782726f8b8876U, 0x726c446e6f506568U, 0x6f5d614c726c6a6cU,
  0x666a79637583705cU, 0x81736f73557a7159U, 0x706c506a6754607bU, 0x5b577c517769875cU,
  0x6d5e80616a887551U, 0x647e6a865e657966U, 0x6a76556a60505969U, 0x6a6a7d5d7679755eU,
  0x70738577787c8066U, 0x5f9180846767956cU, 0x7b6d58666d507586U, 0x7a5f9653856d766cU,
  0x746c87777b637265U, 0x7a88838b78817b72U, 0x7a7b47695650726fU, 0x7662805b798b725fU,
  0x7472967683857e68U, 0x748a7d8371797076U, 0x706b4f5e684f6081U, 0x7164735365777f64U,
  0x5e6b79687b80735dU, 0x888b8081647f8970U, 0x637a5361625b646cU, 0x7b6e7653766d7663U,
  0x685f7a6f69787263U, 0x7f8178806979966eU, 0x796e5f69745a6179U, 0x866276597d807b64U,
  0x707285677b857055U, 0x798980867e758f75U, 0x686e4667645a6075U, 0x766c81547d697d60U,
  0x7459876f6e767b66U, 0x64856d7a716a887aU, 0x726a596865567076U, 0x78766d5c7168806bU,
  0x7e5f936b78847269U, 0x8583718572737875U, 0x6d74536b675a6f73U, 0x746a805a7c65796fU,
  0x6f68916d777d7a6aU, 0x7991868e75768577U, 0x68685b786e5b6b72U, 0x7a6d7f5e807e8b64U,
  0x69747676797c746bU, 0x6d92787c6f767471U, 0x707551736b566674U, 0x785c8a5b7b7a7b69U,
  0x78657d727099736cU, 0x6d7d747f626f806cU, 0x6b6e546b69637079U, 0x7969815e76737664U,
  0x6f71847579877068U, 0x7b847a7e76888477U, 0x6e6c526c7256697fU, 0x815c7c5c6c76726aU,
  0x6c748e7776867163U, 0x768b777f79828c7fU, 0x71774a7168556e7cU, 0x7e5f8e5771637b58U,
  0x71698d7574887570U, 0x86787e86757b746eU, 0x7970577c6c637577U, 0x856b7f557f6f676aU,
  0x6e65867975828065U, 0x7d878f86777e7879U, 0x726e5671625c717eU, 0x7d69736269737862U,
  0x76697b666877776fU, 0x78907b88687a936dU, 0x7367526d695e6d6fU, 0x7b68835b7b73706aU,
  0x745f827a6a72876bU, 0x7e8e73876774807cU, 0x74714677685c657eU, 0x7257735d89697e66U,
  0x655e7e726e758266U, 0x8a8a87866c679074U, 0x6d795270664e6767U, 0x82656d5872746e61U,
  0x6b6275716c8d7a6fU, 0x6774738e6c68736cU, 0x7773596f755d6a7aU, 0x7b60725778676b5cU,
  0x727579726e908267U, 0x6d8d6f8a78618a6dU, 0x686c647272606e7bU, 0x6d677c6276717f6fU,
  0x6f748b78717d7077U, 0x6f917384697a6d73U, 0x7165547171556679U, 0x6f697d5b6e758474U,
  0x73648d71707d7767U, 0x687c7f977668866fU, 0x7977446970566971U, 0x806a6d58726d7d5cU,
  0x6559816a6c6f726eU, 0x7189818469647066U, 0x7f7a56636d5a6584U, 0x686d74606f688161U,
  0x6e71786374836f6cU, 0x7584737c6a669372U, 0x767164636d716c72U, 0x6a6a83666b6e866aU,
  0x716c827b7283676aU, 0x827376807a7b6d79U, 0x66664f766b656886U, 0x7d627c677e6b716eU,
  0x6c5880716c7d7b69U, 0x707a5f8c66778668U, 0x8575566265606081U, 0x625f7a5a7e7c8065U,
  0x6968867079757266U, 0x66737d7d6b796a6dU, 0x737658686e666874U, 0x756a7c5c6e777a69U,
  0x6766787883857266U, 0x7e5e7f896b847378U, 0x7571586964637178U, 0x7b647a645a817765U,
  0x6b67947277876c5cU, 0x846d7b81776e717bU, 0x757a5b6978616975U, 0x7c63835a716f795dU,
  0x60707a6a73845c54U, 0x7c60789c626f816aU, 0x7d8456656156687bU, 0x70608d627d65645aU,
  0x5f6f8a606d797169U, 0x7a6770957e677f68U, 0x8e7e5d5a605a7385U, 0x835c745883746e50U,
  0x6d727f6f6a887662U, 0x896b898d795a8a78U, 0x767a5a5f675e6983U, 0x7e688a5f78677b5dU,
  0x63669c72707b725fU, 0x6f66719c75716679U, 0x80794f686b655682U, 0x826066567e6a8154U,
  0x746f806a607e7f71U, 0x6b89727f6a72936fU, 0x80925d7066675876U, 0x6b706865776e6b70U,
  0x7b7377606a83855eU, 0x538166895d6a855bU, 0x797a5666605b667dU, 0x686f63667e567c6eU,
  0x7f728768686e8a62U, 0x7195657864648769U, 0x7e875b636765688bU, 0x63607053795d8970U,
  0x776b8d6d5d61906fU, 0x64936394666d846fU, 0x807e5d686f606561U, 0x6e645b61936b7e73U,
  0x7b60786b6f708268U, 0x509163635b676c6cU, 0x7f9064877f85686cU, 0x655e546f83865f7cU,
  0x7c82876875728072U, 0x5c9a5c6851707959U, 0x8388717c7a7c6a77U, 0x585b65786e74808aU,
  0x796479716d787e6cU, 0x558f63795d816565U, 0x7e7c6688787f6e70U, 0x625d6c6a87757185U,
  0x8462847c725e8570U, 0x6d8e5a8760816965U, 0x848e609d7a816f64U, 0x5d5c747996816b84U,
  0x7669737b5c607782U, 0x76826f757d687864U, 0x71868493808b7d74U, 0x68796b837d756684U,
  0x7c7f747d756e7981U, 0x82816b7780915c78U, 0x84807a767e8b7681U, 0x8368768077815b7aU,
  0x6c7066836a73747dU, 0x87798178808d7478U, 0x848d7991767e7973U, 0x7d6d727e6e856a7eU,
  0x7b6e738680767a72U, 0x7b8e837a809b787aU, 0x7b837d847d817678U, 0x8770607e7e8d7180U,
  0x7a717f7e6b6d8074U, 0x908381657c865670U, 0x877e7f908a8f6878U, 0x8c6775866d806a80U,
  0x757a79776b6b7e72U, 0x7e9e876786846e78U, 0x7e798b81737d696fU, 0x6d75708777776382U,
  0x697068816b6a817aU, 0x6d818870827c657eU, 0x7885887c777b6168U, 0x7c72647e78726f7aU,
  0x77627d8157667872U, 0x949d9382958c6175U, 0x7a846e6f7d725770U, 0x92735772845e7079U,
  0x6a6c7f7d6c687e7dU, 0x8d88846a848a6f7dU, 0x7983877e807e6d78U, 0x8469658078686973U,
  0x6a65778267667d72U, 0x857f816d7e806e7bU, 0x777b7b7969835b61U, 0x8772647c77706665U,
  0x726774765e6b7f6bU, 0x7f71917c7f7e7073U, 0x7e8174786b826671U, 0x7e6865767c6d6a78U,
  0x7163747d68708666U, 0x7f8692737995797dU, 0x8b8d717d7174676bU, 0x796a6873767a746eU,
  0x6f717d8271677d6eU, 0x899b9d8b7e8a8281U, 0x87877e7575776c6fU, 0x88686f79787a7673U,
  0x7b7479765b638172U, 0x79918584797e747aU, 0x8183717872726774U, 0x7d737e7584837a70U,
  0x7a7a7e787b667d71U, 0x6fa77e7880798482U, 0x79797a8070736573U, 0x7a6c6f7e86787470U,
  0x7a65747667617f76U, 0x8388877a70727978U, 0x807c6c847b79677aU, 0x7d6565737c7b7b6eU,
  0x7473737c6162776fU, 0x807a7e75868d6f73U, 0x848b7b756e7d776cU, 0x75596f7c7d7c757aU,
  0x766d6e74695e8177U, 0x7f9576746d787e7aU, 0x857a7c8678916e77U, 0x736f70757c6a6d87U,
  0x8568697958688470U, 0x6f83746a6f787b6aU, 0x838484847b8b6f74U, 0x707e6587836e6a7fU,
  0x8282847b66747c70U, 0x7d80767f707b726eU, 0x82827a887b837280U, 0x6b726d807e79757cU,
  0x747e637a6f608673U, 0x7e807c7081736e71U, 0x7c80757f79807270U, 0x7b6b667b83708380U,
  0x7e606e7c65777d7bU, 0x7b78777577717b70U, 0x7d8e7b807b826e6dU, 0x6c6c6b8085787478U,
  0x836e7d71626e8171U, 0x837b727b72707462U, 0x898b7783737f7f77U, 0x6b6e6d8670757281U,
  0x7d7d7b746a6b7b74U, 0x7b8a847e776d6677U, 0x828481887f886179U, 0x7b7f707e716f7782U,
  0x7b677587776f7973U, 0x75797f7372817075U, 0x7479748071806e6cU, 0x796b777a787f6f7bU,
  0x7b79777d77618066U, 0x85917978796d7074U, 0x80887576787a747aU, 0x726e7a766e706a7eU,
  0x7e7071776f6f8779U, 0x7a8e866d82766779U, 0x8a7e737f747a7178U, 0x726763777678737cU,
  0x78657f7a62737e70U, 0x819482648276756fU, 0x787e7b7c7f79647bU, 0x7b76637e80716d75U,
  0x80617a8466688573U, 0x8c8d897d8d7d787aU, 0x818c7e867475716fU, 0x876b7176786c6884U,
  0x756a7b7965758374U, 0x8da2877380856c86U, 0x82817f7774866b79U, 0x797466757b727076U,
  0x786d897071668073U, 0x8599896f73897e7dU, 0x7d91727c727b7264U, 0x79705f79767c667dU,
  0x86686e73657c7f75U, 0x788d6e727876717cU, 0x727f71857a757378U, 0x726c65746f767b7eU,
  0x6f6d677f5c687e77U, 0x7a997f7b827d7777U, 0x818a757f7a756d6aU, 0x876d6b7888766179U,
  0x756e837663607b73U, 0x817b71727d797270U, 0x798076787b7e6881U, 0x876078797f71747aU,
  0x7766657d655b6877U, 0x85738179807f6a85U, 0x799578797875796aU, 0x7567737c837c627fU,
  0x717b747e7b6e6f75U, 0x7b907c82818a6b85U, 0x7e8684846e847a6fU, 0x8f68728371757675U,
  0x7c707b71746f7f72U, 0x8f937b69848b866bU, 0x748a767b6f707777U, 0x7c747574816c6c70U,
  0x747075757073796eU, 0x8197728376798170U, 0x807f7f817a7c6b79U, 0x7e6379767e65787dU,
  0x7d60807262698079U, 0x928e6f76727f737aU, 0x83947d6e78797268U, 0x7b67678b7c7d7583U,
  0x72767f706d697877U, 0x82878778896e757dU, 0x8086767d737a7c6dU, 0x8472817d80676272U,
  0x7666776a5e767f73U, 0x7389778177627769U, 0x818b84716d7c6370U, 0x63715e837d73696fU,
  0x7b73687d5f717580U, 0x6e80787f6f7b5a70U, 0x7c7c6e837e7e6373U, 0x6673617971707a7eU,
  0x7e686c6d746f716cU, 0x6b8c7e6c737e7175U, 0x7d9280827b786168U, 0x707365797383698cU,
  0x72756b786d718974U, 0x726a676f6f7c7974U, 0x898971797177676dU, 0x7860687981777381U,
  0x7c626e7663737e6eU, 0x6f76747969857471U, 0x7e8f837472837472U, 0x6870518672686e7bU,
  0x7a68767c7e816b6eU, 0x78717d74876d6772U, 0x746f85727f876d7aU, 0x736f6e84727d6c79U,
  0x716a777c6d69757aU, 0x807882618a846f75U, 0x8180767278706b5cU, 0x6f7f608365796a7aU,
  0x7d706e84726e7470U, 0x807d836d7b77757bU, 0x8b88726e75837077U, 0x7773737f6d807e91U,
  0x8284766b6c747972U, 0x81948263737d5e7aU, 0x78847f757b7b6e71U, 0x6968687a71785f7fU,
  0x73787c7b746a7c78U, 0x7c66926c8b7d7778U, 0x7a757775786b7a70U, 0x847c75806e776872U,
  0x836a737e5a667185U, 0x9570927a836c6779U, 0x71737c6e767b8264U, 0x87786f7d70806978U,
  0x737176877a6f737dU, 0x778693798583787cU, 0x857d708079746d7bU, 0x85737e7d70827c6bU,
  0x6e8a84717b65767dU, 0x8368956c74866974U, 0x6e626578746b7076U, 0x747c766a66716672U,
  0x6979646869657570U, 0x716f77686c6c8469U, 0x5b7175687f757765U, 0x87866e8472726d74U,
  0x6d676e7e7769756aU, 0x6374787d68837d6fU, 0x69687b77706c6d83U, 0x7375707571677771U,
  0x6b6e896a6b63756fU, 0x7a7070976d84806aU, 0x737572746e756d83U, 0x70706d6a6f6f6a75U,
  0x6d6d7c6c73577978U, 0x8e926c81827d917eU, 0x786c736b6a707489U, 0x9576717272717970U,
  0x6d72717085638374U, 0x90878a6b7b7d7b6fU, 0x6d60737d7478727eU, 0x7467646975708c7aU,
  0x6e717a7184737d67U, 0x708b78676e897b6cU, 0x656976736f796a7eU, 0x7d686f787c699d71U,
  0x756f72697966816fU, 0x7b8a75726e896a6bU, 0x746b6d766b696a79U, 0x847066747b6a7b78U,
  0x7579807286627b73U, 0x928b7d736f83736bU, 0x73727e7471707678U, 0x7670777180788271U,
  0x6c9a88769b677d73U, 0x74847a806c747b77U, 0x6a6d7676696d717aU, 0x836d7d6b78717875U,
  0x71817e7b92658379U, 0x86718a7d777a7d71U, 0x696d686b71727188U, 0x92667a717b748771U,
  0x747082757c6c777bU, 0x9267917e7f76777cU, 0x6a6f6687707d6e84U, 0x9870776d7375828dU,
  0x7675927a8466776dU, 0x8f838d7b7b867572U, 0x6e717b70756b7579U, 0x84667a746e82946bU,
  0x6a7178778b547f78U, 0x927f9386767d7477U, 0x736c68786e6c7878U, 0x9f6a716d757e7c68U,
  0x7d938b7c8d697f6bU, 0x91829d83767f857eU, 0x70796c6f838b7083U, 0x84657b717b7c7a6bU,
  0x716b8b777b708a69U, 0x8a8d928f78767977U, 0x6f69706d6d6b8385U, 0xa067816b76758065U,
  0x6e7a8c7a83597a65U, 0x9981938f787c8b74U, 0x756a6f72786a798dU, 0x9369857974777e6dU,
  0x79747d797767886eU, 0x8e88847f7577847eU, 0x716f74777568718fU, 0x89636e72777a876eU,
  0x71917e6b7b5d906aU, 0x9a828c9483737574U, 0x706d6d7474676f85U, 0x7b6f726773758e76U,
  0x6b6a878282628b6dU, 0x7b758b7f7c796e76U, 0x756f727a6a87767cU, 0x9d628f6b817d9069U,
  0x73717a6e7c60746cU, 0x847c7f867f787c73U, 0x666675776d6b7d7dU, 0x7d727c6b7f767f75U,
  0x6f75727368607f76U, 0x7878748275667389U, 0x6c728b6b7275747fU, 0x86717a757c6a7e71U,
  0x6d8e7f768a5d8674U, 0x8575778281797f88U, 0x747778726d6b7082U, 0x77687d697975826fU,
  0x707288737a668971U, 0x8d7e788878726f76U, 0x777b667572657087U, 0x876d7a7379757069U,
  0x6c7f837979688871U, 0x896f737e6b7c8474U, 0x7b6e697167797286U, 0x776f786b797e7f6fU,
  0x6f946f7a7f6b8a7aU, 0x7f7b9672697f7077U, 0x717875746e747078U, 0x717887707170866aU,
  0x6f88747378607e79U, 0x978472786d74757cU, 0x666b66746d666e7fU, 0x77667372796f7a70U,
  0x79717d718b6e7370U, 0x9484877b7d758273U, 0x81637679766a7477U, 0x7c698c7471739270U,
  0x7689796d7665746cU, 0x7287807273719976U, 0x696c6c7570766b79U, 0x6d6b747079707777U,
  0x75997a6682667b6fU, 0x7f827c87736d7775U, 0x6c6f657473777771U, 0x68797a6c77727875U,
  0x7c7a706f8f62786dU, 0x6b857476796c7178U, 0x6d50677e6f8f7a69U, 0x696f806877737974U,
  0x79777c6f7b5d6d75U, 0x79966f6b686f8c78U, 0x6c676d7475697c6eU, 0x727984786f757577U,
  0x7c7475689e5f806aU, 0x6d8b7383737f776bU, 0x70746f707e8c787fU, 0x80697377827d7191U,
  0x7a7a6f6e775a7872U, 0x6d7181696d748c7aU, 0x7979807d758b7072U, 0x6e6f657976838e8dU,
  0x6d7c746d805f7079U, 0x6674747167686e6aU, 0x666f807672957c7bU, 0x81726b886e707285U,
  0x7689847276686f72U, 0x6b87695e9e788581U, 0x69677c7d81907268U, 0x7f73707e836b8d7dU,
  0x757a897372587685U, 0x77687e708b77787fU, 0x707783797f868678U, 0x94708f8377867888U,
  0x7786797c8b6c8280U, 0x75718e7191817684U, 0x6f6d7b787d8d9076U, 0x8d72858d717f7b87U,
  0x848480758c6e7e72U, 0x907b987486818773U, 0x75788977808a8076U, 0x8f72778d8883717bU,
  0x6e79717e8f637c80U, 0x7371897b7e768178U, 0x6c6580797d7f8c74U, 0x8d74918e818b7577U,
  0x7b8a8c6e896c7e7cU, 0x736e6e7980747a7eU, 0x7663846d7881787cU, 0x906d71836e7a9489U,
  0x718d70847a5f7e81U, 0x8c618b70997e7491U, 0x756e747386908176U, 0x946f8c8b6e7d8580U,
  0x797f727a956d6786U, 0x8766946f95816a8bU, 0x7b677c7c78808985U, 0x9f7480866d80887dU,
  0x719e837679626d70U, 0x757984759a7d708eU, 0x747d7e6e77797d77U, 0x997275847c848671U,
  0x72886c748e607189U, 0x7c7f96718b96727fU, 0x6a69897e70858f82U, 0x9170798471907c77U,
  0x6b9b7474765e757eU, 0x73819179858d7077U, 0x7076788286847381U, 0x96736e836b859c87U,
  0x707c6c82666c7672U, 0x73738d7683796b7dU, 0x7f76656e76657075U, 0x896078707c7e7874U,
  0x71797c7d81586e75U, 0x79778d8f887b7271U, 0x72726174746b7e7dU, 0x8161776a6e82686fU,
  0x747a6c737053827bU, 0x70697a7381737c71U, 0x716d7e6f7b738577U, 0x87726c866f71706bU,
  0x6a876a756a55796dU, 0x8171766f79786e81U, 0x6e607870786f7d73U, 0x845b687672747d79U,
  0x84836377776a7966U, 0x7b737c796b707a73U, 0x657a66758265686fU, 0x7e666b6a7973776eU,
  0x6b7b816577557268U, 0x70847674786f7467U, 0x7e6c62746b71707cU, 0x74686a6672727263U,
  0x8184717778607077U, 0x82807071756e816bU, 0x737b69816f6c7376U, 0x7f847070796a737dU,
  0x7c7b72707270726aU, 0x767d70747a64726dU, 0x7a6a6f7b7f67737eU, 0x7969726971707c79U,
  0x7c866373805a8483U, 0x75976f6d7082786aU, 0x647179748271706dU, 0x76706d726c797779U,
  0x767a6a6e77666973U, 0x6678636964676f66U, 0x6c81707f76766d75U, 0x6f756e77736c727fU,
  0x75937d6e835a726fU, 0x746e636f62707769U, 0x72796d7d7882717aU, 0x716e8677787b6e7dU,
  0x7373776a79687070U, 0x715d67716d6c7570U, 0x797269807b707e86U, 0x6e7a72717c6f7074U,
  0x6c716572755e7477U, 0x71647265787f7070U, 0x7271676f78727c70U, 0x71716b826b85687bU,
  0x6d827c6b7a65677eU, 0x70636f6d6b856c68U, 0x76727c757c758173U, 0x656d73776d767278U,
  0x7386686c695b6d6cU, 0x6c7b716c6f696e71U, 0x657c766c727b736aU, 0x6f6b6c80616b7c7cU,
  0x6e7274737a637a74U, 0x6b887a716b706a69U, 0x6e6c757877747269U, 0x706d77746572716fU,
  0x708e776c7a6d687aU, 0x70737d707468706bU, 0x716c6f726e7a7679U, 0x887271757b876865U,
  0x717a716a74656a74U, 0x78617f787b78726cU, 0x6e6d686f6e756f81U, 0x8475907c65817269U,
  0x6c95687176628778U, 0x7ca37468667b6873U, 0x806f7a7d80817768U, 0x766f898b6d67727cU,
  0x7272756b69686d6dU, 0x7f7b6d726d7c7570U, 0x686b786d7e7d6a6aU, 0x7169706b8c706b76U,
  0x71727169625c6d73U, 0x7d84678777696d6fU, 0x7f7871627172757eU, 0x796f7c7e6a6c746fU,
  0x7171727277656d6bU, 0x6d6a7396736f7e73U, 0x6f68717a666f806fU, 0x826f7d76746f6f6fU,
  0x666e6e7e8d5e6474U, 0x7c677e838286746dU, 0x787e797286747971U, 0x7b769a806486736bU,
  0x666d79757273657dU, 0x7467757977827b6aU, 0x72717a7a71686f6fU, 0x7c667c6d6f806a67U,
  0x677c746d7a5c736fU, 0x7275726d6a67736aU, 0x75797f7279766a6dU, 0x6f6398706c607970U,
  0x6e776d6c715c726cU, 0x696e736e6f75766fU, 0x787870697a7a7574U, 0x7e6b717c697e6c70U,
  0x687e776a64636e75U, 0x688e727a79736575U, 0x7879747165806d7dU, 0x7063747775766e6dU,
  0x6a6d726e5b5e7a78U, 0x6d8877706b72796bU, 0x6a716c866e6b6275U, 0x776f736f746b7970U,
  0x6e73786d6f686f6fU, 0x667f6e7a636f7566U, 0x72797172707b6f77U, 0x766c737875787473U,
  0x727c77627767736bU, 0x5f7b7778696a7670U, 0x76686e726f777178U, 0x6e75836b79747e75U,
  0x796a6a716c72766aU, 0x89826c6f6472826fU, 0x71766a75686c6a72U, 0x5d5f706a686b6e7bU,
  0x767a736b6566766aU, 0x71796c7169656b68U, 0x777c716a767a7d7aU, 0x656d687474657777U,
  0x6c7e6b666c58726fU, 0x697c666f726b7479U, 0x706e70847780687eU, 0x67696d7779687769U,
  0x768871757460716fU, 0x73726f7065727f73U, 0x746c7b80797b727cU, 0x6970727e7564737cU,
  0x757672737d657f6cU, 0x7d856b7164736970U, 0x777f717772717b6aU, 0x786f767666747272U,
  0x6b87746976777a7dU, 0x7687696c64787268U, 0x7b82786c727b6f75U, 0x6864727e70756e77U,
  0x736d7f7068686e76U, 0x9498806f66787769U, 0x84807a756f7a806dU, 0x71645b7b74727c69U,
  0x796b66796b5c7475U, 0x7186756b7e696f70U, 0x777475747b817e7aU, 0x757479846f7b686bU,
  0x837c6f7286687b7dU, 0x79737d6171807c7bU, 0x6d6d77797c707968U, 0x767069826b7c6a87U,
  0x716a7775755b7f71U, 0x68627275867d6b6cU, 0x7873647f7c7c7d75U, 0x737a7b77746a7173U,
  0x6d76706d8369747aU, 0x6576816f726b6b69U, 0x7c65738480726a71U, 0x7562827876716777U,
  0x6a69726f7d677a7cU, 0x606d797071886872U, 0x7e6d78797e877269U, 0x705f6c826e71847cU,
  0x727f6c776a6a7b79U, 0x70786d6e7b72786eU, 0x786f78767c907077U, 0x7c726a84927e6572U,
  0x766874736a596f74U, 0x7380766278737e6eU, 0x7b797772787c6f7cU, 0x6c696f7574766c74U,
  0x7180726e666b7676U, 0x798479736e637e74U, 0x796c757d7383796aU, 0x6c6a5d7d6c726583U,
  0x6c766a6f74667174U, 0x687d846a6f5c7167U, 0x6f6f79797888706dU, 0x6c6b737c796b6882U,
  0x706a716269577969U, 0x876e6b718a6d6e70U, 0x7976716b716d776fU, 0x706a63697f786b71U,
  0x7687676d7d6d786eU, 0x6c716e77706b7168U, 0x7a7c7b7c728c896cU, 0x78698e8f747e786dU,
  0x697c676e76617870U, 0x77807c7b6d7a6d6eU, 0x8a708074717a7c6fU, 0x76697a7e79706b76U,
  0x6d757f7787627370U, 0x7a6071717e796765U, 0x7d736e6575708073U, 0x73678580626e846dU,
  0x71877a7970677374U, 0x7c866d716d637064U, 0x70717475726b6f70U, 0x7a796e7f83766f71U,
  0x6d7271616a667a72U, 0x68756d777e6b6b6cU, 0x80758a6a71687570U, 0x816b7e8973777872U,
  0x817f796b82677460U, 0x74886c73727b8367U, 0x6d737179716a817aU, 0x77688971716c7463U,
  0x8c86847674647064U, 0x6a8e5a776d63717bU, 0x7c75697471696773U, 0x66638969756e7467U,
  0x70576d7975727076U, 0x75796e73666f806eU, 0x737b707275796a6dU, 0x746d627a6a696d78U,
  0x75706f666e5c7f69U, 0x5f7d73736f6a6969U, 0x72687b696e7b6862U, 0x686a6e806b797478U,
  0x74726d736e706f66U, 0x5e6e706e6d6d7c69U, 0x6e626f72687e7473U, 0x737969796c6f706eU,
  0x6a77717866728780U, 0x5f746b6a6d6d7973U, 0x827a71747371757aU, 0x6e68676884717279U,
  0x717c8c7967677866U, 0x79827f697f787471U, 0x7273747a69767e76U, 0x7e6f6f7c73735f67U,
  0x62716e756e686c79U, 0x6c71797175816e7cU, 0x7170747b68756a76U, 0x766f6d6f63766369U,
  0x685c736b66607868U, 0x6e7d8d746e8b7669U, 0x6e7179736c6e7561U, 0x6a696a6870676a79U,
  0x685f6876696e7370U, 0x677780736d757472U, 0x76716e756a7b7a71U, 0x7573687c706d746cU,
  0x7f7c7b6f64656366U, 0x76756e6e79657167U, 0x7268717475656175U, 0x736e716973697371U,
  0x6b726d6d7169747cU, 0x6f7d6c6f78687a6dU, 0x726d61776d736768U, 0x75666c76816a7679U,
  0x737b6d7969617981U, 0x616e70746d7d7371U, 0x786c7873706d827bU, 0x69716f7b6e797765U,
  0x877e697b75676f6bU, 0x707b737375657276U, 0x765b6f797279716dU, 0x7d7372737f6c6e78U,
  0x6774737079707974U, 0x737e74826f868169U, 0x68726b6a7869777dU, 0x795d6d716f7a8276U,
  0x786c7a786f657973U, 0x687174687a806a70U, 0x797774746c787c79U, 0x6e6b6a7473687374U,
  0x7c727a727b686470U, 0x78687b75737f7665U, 0x7275798478857d73U, 0x81687f7d6a755c72U,
  0x637d627a8b5f6481U, 0x6d786d6f6a697376U, 0x74727b7c7271746dU, 0x6f7173756f947773U,
  0x70687e756d656b79U, 0x6a686a707c7a6f73U, 0x6b877089706d7a70U, 0x76706160796d746dU,
  0x678372737e6c6974U, 0x6d7c7e7a86687c7bU, 0x717c707373737d73U, 0x79716e786779716eU,
  0x7d7e79776a6b697bU, 0x6f6e6c737d6f6d71U, 0x71707b72696e6f7dU, 0x7268757e666c6e76U,
  0x787b71726f6b7674U, 0x6d78786383756f7cU, 0x6d697b7f767c7a77U, 0x6e6c6e7e736a7c6dU,
  0x6b667364706c7d74U, 0x6c876f767184716bU, 0x7f7976767376636dU, 0x6e7270647c6b7b75U,
  0x787a726f6d6e6d61U, 0x686f7281726c737dU, 0x76676c7b6e657277U, 0x706a6e6179797a67U,
  0x7a6b6665766e6f81U, 0x64796f6c70837a6eU, 0x6c657188797b7376U, 0x726e757271776774U,
  0x817c7b7b737a7378U, 0x687373697b7a7172U, 0x69687b74787c6e76U, 0x796e7e7c7969667dU,
  0x8267777070787374U, 0x77717d7f656c7d74U, 0x7774647774746f6cU, 0x6d71786f7c726474U,
  0x75808674726f6d71U, 0x7066838377896f7bU, 0x747a6f68786a6670U, 0x6e6d7d707e816c6dU,
  0x817b7a6d6e666b67U, 0x827c7866817c6e73U, 0x64646c787c707c79U, 0x78697a707b716a77U,
  0x738170787e665c80U, 0x757583787b787f75U, 0x6d5b736b7d736f76U, 0x86726f7a6a6e7471U,
  0x7458717b62727c6aU, 0x6f7a7f7181707578U, 0x7573757c696d6d79U, 0x7d677f6c767a6c80U,
  0x7e787e825e6c727bU, 0x7677708583727472U, 0x776f627363716973U, 0x78786b757e707873U,
  0x7486777572717977U, 0x79626a6d777b707eU, 0x67686d657461677cU, 0x7a6a6b717a747570U,
  0x706981716b6d7273U, 0x766f797079846b78U, 0x71657271716b6d6fU, 0x817179766d766e6eU,
  0x795f716768677779U, 0x7978766f70818b67U, 0x6e7377686f737062U, 0x747469736b7b6e77U,
  0x657668717f74747eU, 0x737b757e6c776f6fU, 0x767a68787172717eU, 0x6369786b6e787178U,
  0x6b70807b6d6d7267U, 0x88767c746e7a7f6fU, 0x7687657963716574U, 0x796d7b6778726373U,
  0x8468726d61706d6aU, 0x79747a6e756d6f76U, 0x6e72756b6e6a6f64U, 0x886a7a6c7b787270U,
  0x6e6d647466707371U, 0x7d7d7e6e7679716bU, 0x5d61727871706a6cU, 0x8a6f686b7170667dU,
  0x7b7e6c686c72866aU, 0x7272746b74647478U, 0x6e727664726a6e69U, 0x6f725e737a695b79U,
  0x767e75715e67766fU, 0x716e6f7f69747779U, 0x6b7a6f7d737a687fU, 0x78716b6f7c62777aU,
  0x63677e70676a7d79U, 0x7d6e70837d7b7b7cU, 0x757a6c7b62686f75U, 0x74616c6a83837971U,
  0x72727d6f75697280U, 0x6f7a806d8374787cU, 0x616c6d776f6b6e74U, 0x7f75726881867e7cU,
  0x835b6f76706a7478U, 0x837c6b6677878471U, 0x7068737c82786c5fU, 0x776d73706f826273U,
  0x6d8468727e767270U, 0x6b6e736f6e78656dU, 0x6f717e68757a6a71U, 0x6d7072797f796877U,
  0x76667c72636d7268U, 0x6c797383746a796eU, 0x707e787d6c7d6f7eU, 0x7469776c756f7577U,
  0x6f65626e5c6a7279U, 0x79747f7270716078U, 0x776e79736d7a6f73U, 0x80656c77726a5c78U,
  0x776f82735a766c7aU, 0x6c756a7e786b7977U, 0x6b667c7976757969U, 0x7b6a7d7a7a697973U,
  0x75776f745c7a7985U, 0x716e8960726b867fU, 0x7a6f6c866f737070U, 0x7f726d8077655f78U,
  0x71717374587b807fU, 0x727b7d6278717774U, 0x6c6475816f716584U, 0x6f755a6d6f718478U,
  0x79736f7878746a70U, 0x6d767c727677796dU, 0x72736780827b636cU, 0x7065666f77697170U,
  0x697c777d7a757b73U, 0x5c83727d70827278U, 0x6b7a6b7f70746475U, 0x6e6865747d797168U,
  0x696b717278857d7aU, 0x629e7c6e76a26f76U, 0x6e736a75776b6c5bU, 0x7961576d917c6174U,
  0x8377736a84987065U, 0x7b797a6781a67380U, 0x6364556c69677473U, 0x7350755873718c6cU,
  0x69657a7277856672U, 0x6b78634d66667a68U, 0x59687266856c7069U, 0x7a6365667e5b7871U,
  0x7158686d76747377U, 0x6d677d6a7687757aU, 0x6d64568075756d6cU, 0x7e60836584687260U,
  0x7e7a76806b3f7b65U, 0x808f886293878887U, 0x645a5aa1745f7e63U, 0x965a8258a58a6d67U,
  0x748d818280517c82U, 0x7a8c75729889818eU, 0x5d4b5987756a7577U, 0x8b677d658e7f7675U,
  0x8188887274548673U, 0x93a87d6779827b7cU, 0x5b445f73736b6873U, 0x8a667b697282746cU,
  0x7574816c845f7671U, 0x7a9179717d8c7772U, 0x5b4c64786d6c6d6dU, 0x936b7d6c6b787368U,
  0x7877896c75537e6aU, 0x83917c66847d7177U, 0x5e596474726a7b7dU, 0x826377696d817769U,
  0x787177787f607075U, 0x8796776f8c7f7a7eU, 0x675e567e6d597579U, 0x88657b637f91636cU,
  0x776b55736a6c686eU, 0x748b85688686747eU, 0x675b618976697573U, 0x8d626e727f657571U,
  0x7b716b6065696e60U, 0x707173697a6c7171U, 0x6642658173717779U, 0x8d6a7b71766f6d6fU,
  0x6e996f697c697464U, 0x7388766e7c70646aU, 0x6e64628877647481U, 0x7e627b667a72816cU,
  0x6b7865736e767279U, 0x6b907870897f817aU, 0x70586571796b6d74U, 0x8d646d66816c666cU,
  0x6d87786c7c767474U, 0x7a79786b7185766bU, 0x615e6475726c7871U, 0x77717766727e7377U,
  0x7789706e797a6f80U, 0x7983646774798071U, 0x60617087776f6e70U, 0x80726d7263796b77U,
  0x6965736e6c6b7e73U, 0x7b7c77726a8d777cU, 0x675e68837174756dU, 0x906168716a6a6b6fU,
  0x696863736667706dU, 0x6b8a67816f80746fU, 0x5c5a5b81676d667bU, 0x7e6b6c627b83776aU,
  0x708069797b706c78U, 0x7a6f7b6a827f6d73U, 0x595e5b88746f7376U, 0x8d69786572746374U,
  0x6c775e78716f6e69U, 0x7a80675983747479U, 0x5b5c5f7573677961U, 0x7d687a7b7965646eU,
  0x7177637465697d70U, 0x76806e5282657077U, 0x7159578074706a61U, 0x8168656d83685e78U,
  0x727f6d716588756aU, 0x82837371847f787aU, 0x70656076725e776cU, 0x8c72705e756e746eU,
  0x738e6e726f837e79U, 0x708d726e767d7d7cU, 0x5f5e5f7874677775U, 0x7d6373686c797372U,
  0x797a77787a807a79U, 0x7a8b706d756f726bU, 0x62576a847a707273U, 0x796b7a6a7d837472U,
  0x7482687789727774U, 0x6b7178626e827976U, 0x65635d8170658371U, 0x7475765c7285787bU,
  0x757b7c728181647fU, 0x7479766275826d72U, 0x67676e706e6b7a71U, 0x88766a6f68737674U,
  0x6a8874717c817a77U, 0x6c876c766f7b8274U, 0x63606473746e726fU, 0x8173786f80836c7aU,
  0x77787a6c6a757773U, 0x84796d68737a6c81U, 0x6860747a72747978U, 0x7c63697273746e79U,
  0x7987677671826a79U, 0x699b72637a716273U, 0x6a526b8573787965U, 0x89655e746d62646bU,
  0x6e695b726287726dU, 0x75877d687676716cU, 0x695b667a7d767667U, 0x8378716b835c6c76U,
  0x706e64676e8b6e77U, 0x776a756a6a687e70U, 0x6c686f746f7d796aU, 0x726b7b79776e6b73U,
  0x6b6d7a737d81737cU, 0x7e7b726f7c7a6e70U, 0x625979827d7e7a74U, 0x77617c8472758177U,
  0x797d6b696c90747aU, 0x708a6e61707a6270U, 0x695f6f7a727d7267U, 0x726d777a6e776a73U,
  0x707b677374826d7bU, 0x6481686a67646f5fU, 0x64666a746b726e74U, 0x6c6f696b667a747dU,
  0x788e767183816677U, 0x6e7a6b60757b6771U, 0x6c565d77726a8674U, 0x8268896a72727473U,
  0x6b83696b787b6677U, 0x6d6966676b716b63U, 0x6359746e7672816cU, 0x8b758873627b716dU,
  0x797c676f78806c77U, 0x6d7171627e696f77U, 0x655a72777c7b756eU, 0x8471707368706975U,
  0x7079646e608d6f79U, 0x7673705b75707472U, 0x6752677273807f6fU, 0x7770527f685b6977U,
  0x6c8179697e816a72U, 0x74826a757c6a756eU, 0x67585a7a75716d6fU, 0x826a7761686c796aU,
  0x6f7e7a7069816c7dU, 0x716f735d81667876U, 0x726a5d8472747e69U, 0x9273615e707c6a69U,
  0x746c7c6e6b8a6c71U, 0x736e716a77857173U, 0x624e79777e81806bU, 0x81766776717f6874U,
  0x6c8d72697b7d6984U, 0x60687a69826b5c6dU, 0x52567475747f8672U, 0x8c698b785e6c7e72U,
  0x6479706a6b846b6fU, 0x716b7264696a6a69U, 0x626361726b5b7669U, 0x8676706a68816867U,
  0x727a6969797e717eU, 0x68686760776c7871U, 0x67605f7e735c7e77U, 0x7278736462726f65U,
  0x7183686a8e8c6f7aU, 0x6078715c75746d71U, 0x635166656d746d6cU, 0x7e7d776e6e7b6972U,
  0x7185746d79826c83U, 0x6a776864796c7c80U, 0x67466f6f68727b68U, 0x8e847678706a687dU,
  0x767e656d76817272U, 0x7e6f7663746a7770U, 0x73626f6e5f6e6879U, 0x79636872726f716fU,
  0x6971716e83757575U, 0x70816b637a767b6fU, 0x5e5f5469706e6e71U, 0x7770676b72687575U,
  0x6e79686f71727156U, 0x70815c6f5b568371U, 0x5c4f75797b867170U, 0x64707262716e797aU,
  0x6c7b7a6970857381U, 0x6d934f925d64607cU, 0x6851917b798a736cU, 0x688c7093826d6e88U,
  0x6f7669737797777aU, 0x658b5a7e6e607f75U, 0x6c5f786d72667672U, 0x717d7b7b6971756bU,
  0x749d78776ba86f6bU, 0x6e6e55906e656e64U, 0x6f65776e6f788076U, 0x797a7d816976736dU,
  0x7274708173925f7eU, 0x6765747d71776f7aU, 0x62597577777b8572U, 0x8177787d5b80856eU,
  0x647177798693775eU, 0x947c645b71b16361U, 0x685a81677f7b7875U, 0x7079737d66926876U,
  0x737870798b857a6dU, 0x727d5e78688b7e72U, 0x6370626a6a6b7374U, 0x76637f6c618a7f77U,
  0x7373716e7a8c8177U, 0x65805c75798b7a6bU, 0x6e776864775e746dU, 0x6a8372726b716d7dU,
  0x6d818172675f796aU, 0x6d7f63837486717aU, 0x6758746a6a677479U, 0x8c7783795a727169U,
  0x6f7a907b8272746cU, 0x868c9271bc8c6390U, 0x674f68646e66688fU, 0xa77192657767806bU,
  0x74677779845b5e79U, 0x7e71955f8c8c8e83U, 0x60665b6d7d646c69U, 0x976b84676983697aU,
  0x70757e6e7b6f6870U, 0x6c7690748a8b7e77U, 0x696e63745e587875U, 0x826786696f817570U,
  0x6d74746e847a7175U, 0x8476977382887d7cU, 0x66685d7171647277U, 0x946f81707a848474U,
  0x70677e787c75737aU, 0x859b81718779868aU, 0x6c6b5f7b6f6b6d67U, 0x8e5d756479887f77U,
  0x6668697f6e7a7176U, 0x807984768079887dU, 0x6f7a637571676260U, 0x7f6d75697576606aU,
  0x747a726c86687761U, 0x72828e75846f7679U, 0x70755b7a6b6c7480U, 0x87706c6d6875847eU,
  0x7171817571757882U, 0x808e7b6f7b748788U, 0x7b726f70756a8d85U, 0x86737f6f7c7d8d79U,
  0x71686b8083667372U, 0x838c81727c8a6f80U, 0x7072677766688777U, 0x91666e678479787bU,
  0x766d747278707f7dU, 0x75887d74837b7d74U, 0x738871746e5b7871U, 0x7c786a667b7a8975U,
  0x75757a6e76627978U, 0x7c8678617c78777eU, 0x6d7f656d6a608687U, 0x7e6f8b6f6a787d75U,
  0x748a6e73835b766cU, 0x819281796f84817bU, 0x78766d7e6a717e79U, 0x82757c726c7c7972U,
  0x79707672727d7780U, 0x7f8b727e77736b82U, 0x776c6e7d73817078U, 0x8b766f786f766c83U,
  0x6e6577727d7a836dU, 0x8185777d7d816270U, 0x7a7a61786e767a76U, 0x7c6d78767c748980U,
  0x737d786c826d7c7dU, 0x7f7b6c78777f6f7dU, 0x6a796e6c6f6e796dU, 0x7f6f7a737a797481U,
  0x6d7c73777a698175U, 0x867d718171807082U, 0x767d6f7b72758279U, 0x8a6f7c71647d787aU,
  0x6e6968827566706fU, 0x697a847470797872U, 0x85767575777b7672U, 0x80766b70707b7282U,
  0x74797a778d847b7bU, 0x768279667681797fU, 0x72727178785f777eU, 0x8371856678747d74U,
  0x7b71737b6a747f75U, 0x7c8d7e707a7a8577U, 0x7564717d75728660U, 0x8a687c7b71707577U,
  0x787266738171717aU, 0x848574747d787d83U, 0x6e726b6f716c757bU, 0x856a807276757e76U,
  0x6e6b736f78597e76U, 0x777e7e687e768a78U, 0x7f7a6d61737e777eU, 0x887366796c8d7977U,
  0x70737a76717d7e77U, 0x6d7b6e82767b727cU, 0x7b7d757370727b89U, 0x8773726f76738272U,
  0x68747a727e6f8875U, 0x7b8c6c7b797b7c7eU, 0x6b74616d74727274U, 0x8368927075787b77U,
  0x76687e7276608577U, 0x7e88687773747579U, 0x6c6e6b786f797582U, 0x836e836f657f7b77U,
  0x7a6c6c7a7e81726eU, 0x856f687d777d6f7dU, 0x7c7072687b747c77U, 0x897378717e7a807dU,
  0x7d7c737671697c78U, 0x6f84616f7a726d77U, 0x78777d6c737a7983U, 0x7a6973847b6b737aU,
  0x707e6a7177637078U, 0x706580767271727cU, 0x7a74716a76717874U, 0x7c637870767b7479U,
  0x6f7783727e636e72U, 0x837c7e7d7c7e667bU, 0x726e6a62776c7a7aU, 0x887080757a797979U,
  0x776b6f7a88797179U, 0x857e747b81887d75U, 0x7379676d7568797bU, 0x7c71887770847d7bU,
  0x7379728082758a6cU, 0x7b8a7c7d778c657cU, 0x7f7f71717e7c8774U, 0x896e81787686807cU,
  0x6a7b777581697f73U, 0x75888c72787b776fU, 0x7875756f80677872U, 0x85697f747a837d77U,
  0x768e866c85747377U, 0x78846a857170726fU, 0x8175757a6d638078U, 0x7b6c807263796e77U,
  0x6e806f7c7c627980U, 0x8887747890757181U, 0x76776476656c7677U, 0x82747f7275697979U,
  0x6771759095687a6aU, 0x858e7c6e8695708aU, 0x7a6e706d817f8284U, 0x8a6e8e78798d877bU,
  0x7876768a7f698374U, 0x899282667d977380U, 0x777e6f7070797676U, 0x8d71727d6a8b7a7bU,
  0x6f7c7176807b6976U, 0x667f7278798e797aU, 0x737270687b6b7a75U, 0x7e78866f777d7974U,
  0x69847783a4667a70U, 0x71876d79738f736eU, 0x6e6566776a6c6976U, 0x7b6586677c837e6bU,
  0x7973757e92707f71U, 0x8d9b887f82808289U, 0x7079767677698081U, 0x986a7c75747c8082U,
  0x886a787c77637f70U, 0x99a385778c8a7b83U, 0x7866747573707a6fU, 0x8b6c78807f8a7878U,
  0x72728a7b7d6c7770U, 0x85857d7c8c877c81U, 0x736c727f75707784U, 0x886c827a79807e71U,
  0x7673778082677f7bU, 0x868e7f7382977184U, 0x74726b7b6a6a7276U, 0x936278796c797f81U,
  0x7c7e76789c7d7f7aU, 0x84a981738a967c87U, 0x695f777873728569U, 0x82728d7a8392968dU,
  0x877d8e839a7d7d7fU, 0xa0ab6f6e80918383U, 0x6465667c766f7576U, 0x84668d75718ca37dU,
  0x886d6f7a8a4e8581U, 0x87be7e6b81968e89U, 0x6c6868787c77787bU, 0x7d5d8e7d6b8f948bU,
  0x817b78868c768c77U, 0x75d36f627e9ea089U, 0x6c606777777a7f71U, 0x816891757d949b86U,
  0x7b846782877d5a6aU, 0x795668747f6a6b7aU, 0x67657880726c8e77U, 0x746f878264816b63U,
  0x6f815f7d875d638aU, 0x69687a6c80706270U, 0x6a617f898477777bU, 0x88759c7c588f6f6eU,
  0x6d785f818f764e78U, 0x6c5b747483796d7fU, 0x5b5f73817c7b8f78U, 0x89709879668c7377U,
  0x6e83748c94845f7bU, 0x704d708383876276U, 0x4a5f77827e789382U, 0x917bb47c63986c6aU,
  0x62836371785f6782U, 0x776c70727b517479U, 0x4c5e5d5a6c64776dU, 0x87787a725f627669U,
  0x6389746576566961U, 0x8979776183687474U, 0x60596761695e7473U, 0x898d79635b707a59U,
  0x5c8c5c72705d6f7cU, 0x887e6c6b84616d72U, 0x5d61695a646c7a6bU, 0x7d80796c575a7858U,
  0x618a7168676b7174U, 0x93767b5a7e5f6d7cU, 0x5b5a806563618c6aU, 0x8da976684e598a5dU,
  0x647571608a6b6869U, 0x64926e6c78797674U, 0x5f4d5572665e696cU, 0x805f7a5e60736f5eU,
  0x688e6964875a6968U, 0x6587717558637e6dU, 0x6154566d5c5a735eU, 0x7d6e8d586573785aU,
  0x637d65638a5c676eU, 0x6d88586266647e6bU, 0x62515b6d665d6563U, 0x6c6f7b5e556f7263U,
  0x708a695e74766367U, 0x6e8b606768666169U, 0x5f53666c64677472U, 0x6b6786635b6f6b6dU,
  0x6a7968588f696962U, 0x6887697076737772U, 0x585d5c6968666975U, 0x6c618c5a74667c6bU,
  0x72806d6684686263U, 0x6476626d6b678d6aU, 0x5f565d6c6e667467U, 0x7266695d59666f64U,
  0x6c7d6c5a786e6566U, 0x5f795f6e5f557d65U, 0x635b65636a6c6b74U, 0x6d647f66665e7466U,
  0x6a7b5f617d746459U, 0x6588656c6b576a6cU, 0x5a4b62737365685fU, 0x76727765595b6c68U,
  0x6e88646c8860626bU, 0x6b855f67696b706bU, 0x63626f7b7169746eU, 0x706f83696770756bU,
  0x716e63628178606fU, 0x628a646e6a697068U, 0x6258707b69696e72U, 0x6c6c6d6963746a70U,
  0x748667647a636568U, 0x5a73585f6d727a60U, 0x5e52647c6f6b7764U, 0x5b7274665c697668U,
  0x6f7d635d8d6e656bU, 0x56845f5e62677667U, 0x59496a70736b756dU, 0x6c6a8076557a7471U,
  0x6d7c6b6b867d5d76U, 0x5f765b5b6a717969U, 0x60656a776a687866U, 0x696e806a6c72796cU,
  0x6f7a626687726476U, 0x6a825e6564727c6cU, 0x675774706d637959U, 0x6c687d6d67797870U,
  0x728e6c6e8c776571U, 0x6863675f6b717a6bU, 0x5a5c6d6a72797465U, 0x726f7072576e7d6fU,
  0x637c69607e795e6fU, 0x6e765e60726f7670U, 0x565a7165706d7867U, 0x6a777b725c656f6fU,
  0x7393776879736b6bU, 0x677261656b6a7767U, 0x6b5b686a74707c69U, 0x756e7c72656a7377U,
  0x708973679678636cU, 0x5c6f64667766757bU, 0x5e5572737571845fU, 0x7970807369657d6eU,
  0x737b6d707d706575U, 0x6a7f746c72737c70U, 0x59556e6d6c687e69U, 0x72707c6e667a7e70U,
  0x71896368817a636eU, 0x6e776b627376786dU, 0x625b6e6f6c678965U, 0x7a7b846561798a69U,
  0x678d6f61736f6169U, 0x6c64666d6d66726bU, 0x655a70696a667d6dU, 0x6f79866c5e737365U,
  0x6a8967697e6f6279U, 0x6d68696b6b687572U, 0x5c5f7073786f7e5fU, 0x776c817064706c70U,
  0x6e88666376756a63U, 0x765f6162736e6a75U, 0x635f6b6f70637c60U, 0x776f7d7061647174U,
  0x647b6b627677636dU, 0x6c706568745d806aU, 0x635f69757a6c7c66U, 0x716b84655d5d7369U,
  0x67796d66807d6867U, 0x656b60786d6a7873U, 0x665b697471647a68U, 0x81707f5f5c70616bU,
  0x657b5e64797e676cU, 0x6e6a606473607e6cU, 0x69615f696e628168U, 0x747383605f707860U,
  0x7380666585706b6aU, 0x707962677c757b70U, 0x68655c796e647766U, 0x7c747b69717d6d64U,
  0x696d656b7c79616aU, 0x74726c7172686c6fU, 0x5d616b6f69617d65U, 0x73738c6a6777836fU,
  0x66855e6a7a756267U, 0x6d7a61676f6d7b67U, 0x69666b6e68677763U, 0x6f6a815e6a7a6c5dU,
  0x68826460957d606cU, 0x6867645d6872786aU, 0x5e6a5d6f675c7563U, 0x7c6a9262617a765bU,
  0x6ea76e5ea0776365U, 0x6d796465717b716dU, 0x625b5c61655a706aU, 0x7764a06566728e65U,
  0x66846969957d616bU, 0x706b69657e6d6e6bU, 0x625c616a63637860U, 0x837294625a7a7061U,
  0x658d5e627e776669U, 0x6c65696066586970U, 0x625e5f76605e6b6aU, 0x7c657c6265766a66U,
  0x64856a6184755c6dU, 0x67756a5f6e6c6870U, 0x61625f6b605b7860U, 0x8773865d6463705dU,
  0x6487675c88726667U, 0x61616a637369766bU, 0x615d616b685b7362U, 0x9f798e5f69717b65U,
  0x5f825e5d876d6764U, 0x606e707268627070U, 0x675d5a6a605b6f66U, 0x7865885d61737c65U,
  0x638f6a6599686171U, 0x627c5d6864616c64U, 0x5f606b716b5e7764U, 0x7277846664728662U,
  0x62836a659c6f656aU, 0x65766665616e6c64U, 0x6b5c5d735f5f796aU, 0x6d7494605672795dU,
  0x608d6b6387725e61U, 0x646a6969656c776dU, 0x675f676c6560745dU, 0x6c71846065806e5dU,
  0x5c9a695dab675e6fU, 0x62685d7563717669U, 0x69615e6566626d6cU, 0x76688b6858777d5cU,
  0x68a76f5c886f686eU, 0x5e78696d726c7877U, 0x69585a7469597b64U, 0x78737e6763657a66U,
  0x647d716877736d6bU, 0x697f62637777756fU, 0x6055716b62617569U, 0x7a6b89616171836aU,
  0x6381726a8571726dU, 0x678273686d807b73U, 0x6c635b6d685c6f63U, 0x8468845f676d8269U,
  0x6a7f735f9e6b7264U, 0x5a80696b6777747dU, 0x685964736b617070U, 0x7c658e63627c7b5eU,
  0x6aae6d698a5b6b65U, 0x657f6d74615c7763U, 0x5e5968757260817cU, 0x6f68925b6a89756eU,
  0x6a7e62646f5e6c71U, 0x65666b7162547c74U, 0x605464726a63796dU, 0x75816e6573566a6cU,
  0x65956664737b6c68U, 0x68705d736a527c6dU, 0x5c506a716d6b686aU, 0x6c7878625e4f7371U,
  0x6c835f6764766767U, 0x62735777594e776bU, 0x6259697572757a73U, 0x607b7d6e6a506a66U,
  0x6d8364646f62656aU, 0x624e5e736d627a74U, 0x625b6e6f746a7779U, 0x767380706767756cU,
  0x71765f6a5d727473U, 0x676a69695f6b6968U, 0x6a6f716c6d637061U, 0x5f73746f5d696764U,
  0x6f7b636770726667U, 0x5d585d655f72815cU, 0x676f606f73736c6cU, 0x5c80727467646362U,
  0x71826c70707f5868U, 0x635f546d5559754fU, 0x5f5c797676746d68U, 0x5990776c6d5f5a73U,
  0x70855e57776d686fU, 0x58695d6e646d7264U, 0x6e6e7169696e7671U, 0x62716e736660686dU,
  0x69756c627373656aU, 0x674b5b637360705fU, 0x71756f7272756f66U, 0x5c6c7d6b646f7063U,
  0x687859665c755a66U, 0x674d66636f637265U, 0x646173596a6b695eU, 0x7784795d5c725a5dU,
  0x6471666872775b71U, 0x675e676a6f6f7772U, 0x61605e5b6b647761U, 0x7279667256786b73U,
  0x696d737076865d6bU, 0x5d5d6e6e736a686eU, 0x6867706a696b7567U, 0x757d6f635767526aU,
  0x64796f6f7883656fU, 0x716c6f6a6f656a6fU, 0x6970676e675b7063U, 0x786773725a7b6f65U,
  0x6d796b726a806173U, 0x7164716f6e69626fU, 0x6c6e675d6c635e59U, 0x767d76685f726967U,
  0x6a6e6b73647f5c66U, 0x5861766a6c756976U, 0x6c6e6257625e7661U, 0x75757d7153726560U,
  0x6965646f7c7b6766U, 0x766571675966696aU, 0x686e61626668666eU, 0x6a727b655d6b6c64U,
  0x6d63636b6e7a656fU, 0x6a696a586f67706eU, 0x67726b7065626865U, 0x7b687c65616d716cU,
  0x686d636685756861U, 0x6160645c626d6c65U, 0x65645f6e67666d60U, 0x5f747167676b6d6bU,
  0x69635e666a7d746dU, 0x5d59575a5b6a7258U, 0x6c666d666461666fU, 0x677c726062666a5eU,
  0x6a7e5e67697b7465U, 0x5f5f5f6b61577360U, 0x6c6a6a6d696d6e66U, 0x6377796565626769U,
  0x68776b64737a696fU, 0x596a626963547a5dU, 0x67676b6e6c72696dU, 0x707b816869676f68U,
  0x6a7f5f697879676dU, 0x6669616a675f7b74U, 0x615f686b6d686d72U, 0x7a6f706a68697061U,
  0x6868656a6e746764U, 0x6776645f64716e69U, 0x6a6b5a6563687064U, 0x7267766562617271U,
  0x6d7a70667d706a6dU, 0x5d796266616e6e6aU, 0x6969686b676b6c68U, 0x576f686e64646e6dU,
  0x6d796962846b6168U, 0x686e56695c667463U, 0x69636b686a6a6f68U, 0x6a80856f6c687a6cU,
  0x646e626b7c816868U, 0x686f5866586e7a65U, 0x5d6c686872727569U, 0x65787171656d656aU,
  0x6b7c63689278656bU, 0x6a59766d6b636969U, 0x6670636d72667557U, 0x6e6d676761737169U,
  0x6d85676b7f7b676bU, 0x63695c67626f6368U, 0x5c62675c7066726bU, 0x71727f68646f6f67U,
  0x6e8960717f85636aU, 0x6e795d6565596969U, 0x6b676e5f71687471U, 0x747a736d61656469U,
  0x626c696c747c636dU, 0x676959646a64755eU, 0x6465706d6d667e63U, 0x70716d68687e6e69U,
  0x68635f6c6c776167U, 0x6476607063636d6cU, 0x677170766c667761U, 0x627e766e64617267U,
  0x668a7b6771736670U, 0x77645b5f6d6a6d7aU, 0x615d68696b607165U, 0x7973787166687168U,
  0x6f775f696680636bU, 0x6f6562686569786fU, 0x5c5d69676a6a705fU, 0x6a6e716f6c666267U,
  0x6c7363656670666cU, 0x665f5e62766c7167U, 0x696463676d77715eU, 0x6478676e6a695f67U,
  0x69726f636e66616aU, 0x6660586768686a61U, 0x6f6963686e606d67U, 0x5f6c7b6970656965U,
  0x6e8069697a65616dU, 0x695f6b7169606565U, 0x635d61806d60706cU, 0x69777b61656c696dU,
  0x6f766b6675786467U, 0x6d6f68676a6d6e6aU, 0x746964776f6d6f6dU, 0x706e6466606b6470U,
  0x647d6a6472736a6dU, 0x6060666c5a5d7f62U, 0x606162646e666c64U, 0x63687660655b646dU,
  0x707d6f686c826369U, 0x5f5e60675e5c7666U, 0x5d5d616d6e616a6aU, 0x6663776e5b676760U,
  0x687e645f757a6762U, 0x63665c6969577266U, 0x6a5b5e5e645f6a64U, 0x657b6a5d6e626b63U,
  0x6a647b6567776568U, 0x6365626d705e6e65U, 0x6967666769617065U, 0x6b777c715f5f6663U,
  0x686f5b67716b5f6bU, 0x64605d5d6f6e6f6cU, 0x6963617168686f69U, 0x7d6b776c64676d67U,
  0x70785e668a776365U, 0x655d5c6269756d5fU, 0x6764686b716b7160U, 0x6f6c74675e696866U,
  0x6e6c6a669471676aU, 0x686e657168656d6bU, 0x686c5e7268577664U, 0x6d7378636378706cU,
  0x6c856a617f77676cU, 0x5f695a5d685c6e61U, 0x625f636372606f60U, 0x71746b605d7d6b72U,
  0x656f63617b775c69U, 0x626959676554776dU, 0x5d626a767064725dU, 0x6b73766b5f72626cU,
  0x6b76696a76686764U, 0x5a746065685b6a6eU, 0x655c6b65656b6e5dU, 0x6b7d6f696c59606eU,
  0x6f77736783766b6cU, 0x7e6270636d70646eU, 0x62645b796e686d69U, 0x6a7074696a7d6769U,
  0x6b726764797e646dU, 0x688460596b6a7268U, 0x5b5969686d646b60U, 0x6373626769766466U,
  0x675d64676e7a776aU, 0x6260615d6a586b60U, 0x5b5d625e66687165U, 0x7070657d62606d63U,
  0x6d726670776a6a67U, 0x736b66606c616b6cU, 0x676570696a726d60U, 0x736f776b676b7164U,
  0x666c706d7c67626eU, 0x69676779706a7a70U, 0x81806459706e6972U, 0x697677676d616862U,
  0x6866606c756b656aU, 0x6c64656b62666d70U, 0x6b73656167627869U, 0x727a82676375745bU,
  0x63806e726d7c696cU, 0x8166586867696f6aU, 0x716c786b717a6b6fU, 0x667a856f6c756770U,
  0x707a646a6b767177U, 0x786c6b7169677871U, 0x676f62696b6e696dU, 0x7a6d526f7065716cU,
  0x647e726e71726369U, 0x645f756f6572786cU, 0x77735b6e69647268U, 0x7a68725e5e6f6e66U,
  0x667f717372746e6aU, 0x6e636f767476635cU, 0x746e626b62647471U, 0x716d7663665c6469U,
  0x63647378646d6c75U, 0x705c76707a7c756fU, 0x705666676061766bU, 0x7769715d6978745fU,
  0x68726168766f7a70U, 0x737b777f797d7873U, 0x716c5f666e687865U, 0x77657664697f7363U,
  0x71695f7475707464U, 0x5962596e776e6f6fU, 0x74725b5f68606e79U, 0x6261746f76787767U,
  0x677e796f7a78706aU, 0x737374735c677e74U, 0x706e61706c62756dU, 0x716e716f6975736bU,
  0x6a6d716f6172736aU, 0x73727870796e8470U, 0x7966686b6761736fU, 0x796582647b6a5966U,
  0x727170726563756cU, 0x676b767b796e7277U, 0x737a636a6c626e74U, 0x7f677464756c6c64U,
  0x657f726a726a7965U, 0x596c6e6a6c74756dU, 0x787969667560676aU, 0x766a6e61777a696aU,
  0x667275756f7b776bU, 0x6b69766e6e747e6bU, 0x7176636c67616970U, 0x6d686e65707f7865U,
  0x6d706f626f7a696cU, 0x7387697c696d6b69U, 0x6e7857676b546773U, 0x6b6f6e64706b7c6eU,
  0x7361797078717d78U, 0x61846b7b62717775U, 0x666765646f5a697aU, 0x6e59645e766f7777U,
  0x685c7a7675807a70U, 0x7a8268786968806cU, 0x736c62706c656879U, 0x6c696b697275756fU,
  0x6f657f6c787b726dU, 0x6e777d7a68777476U, 0x73746b5e68666576U, 0x706d726975826a6fU,
  0x6e73796d7e81756eU, 0x7b6e707c66787370U, 0x767660706a667467U, 0x73767764696c7269U,
  0x656c7d787978726eU, 0x6e8571776070776eU, 0x72705c6f70687068U, 0x735f83617563786aU,
  0x68627877656c6665U, 0x745f748074677976U, 0x6c7360756b68747eU, 0x716863607668776bU,
  0x6e6f737d6d7e7268U, 0x7b7a7b7565767b67U, 0x727b6370715e7b76U, 0x6c6a7864766e7473U,
  0x7470696c677c786cU, 0x747e716668747271U, 0x6f6e62776c676f82U, 0x6c666c5b7465736cU,
  0x716b71776f8b7c71U, 0x7b7c706577757c6eU, 0x726c5b716865657aU, 0x7061666a806a716fU,
  0x7a717a706f81786cU, 0x767c646b72657c77U, 0x77755e6369666f7dU, 0x71666a637c688172U,
  0x786f807c7b7e737aU, 0x7578756f777b7578U, 0x767561736a5b7079U, 0x6e7a796375847875U,
  0x746e7b747a8c7776U, 0x6d796c7562777771U, 0x65725f6c6d5e7977U, 0x7069656a716f6c77U,
  0x79727275807f7a6cU, 0x6c78707861707e68U, 0x7e7865787d6a6c76U, 0x676a77657c797c74U,
  0x6c726e7b83807868U, 0x757976796262766fU, 0x726e5c6d6b6e6475U, 0x6b6380627f7a767cU,
  0x78736e72777f6f7bU, 0x676974746f707668U, 0x6e78605f71677671U, 0x726c7868667a7976U,
  0x6d78776a768d7069U, 0x71695f696b617373U, 0x7b7972656b666b78U, 0x6a6e6d727675706aU,
  0x6d7d78796e6f7870U, 0x786b737f6871766cU, 0x7679546572627d7eU, 0x81716d67746c6a68U,
  0x717a787064737a7bU, 0x736f797f6e767772U, 0x7d83607477697081U, 0x7263736476816a65U,
  0x6c7c7367777e787aU, 0x757a6e796d7c736fU, 0x7c7b6a6569697874U, 0x716a7469797d756eU,
  0x7176777972737272U, 0x7e796d7d70797a75U, 0x767c6765696e6b7cU, 0x796d7a6c7972786cU,
  0x6a6377686e82786fU, 0x7f826767686c7a70U, 0x786f5f7b6e646b78U, 0x78687a5f746e776cU,
  0x7b796d816a706c70U, 0x6e7e74807f7f7769U, 0x776b5c646a587270U, 0x7a7069607868786bU,
  0x7e8c79756a81796eU, 0x777c767273816c6aU, 0x6a795e706f667071U, 0x7365715b79737f6eU,
  0x71747c727473646bU, 0x6a7077706a6f7b74U, 0x756769716d646f75U, 0x706c6b636b657b72U,
  0x76737b6e79856f71U, 0x7064747c7681726eU, 0x69635a77786e7c6bU, 0x6f6976656c6c7172U,
  0x6f807875717f6673U, 0x646a646d60726b74U, 0x716c58716e637073U, 0x5961705b806b6866U,
  0x728078707d736e70U, 0x70676d7b63817070U, 0x746d667772636c79U, 0x69757b6270767077U,
  0x68807e6981746870U, 0x6e6e76786a8b7069U, 0x6f6b5b6a7364737aU, 0x656b7d637f7f6f69U,
  0x6a847366887c6869U, 0x6e72716d6c776b70U, 0x74796e6f755d6e75U, 0x6b777268657f7870U,
  0x6e7a6a7472786971U, 0x777974687188776cU, 0x77686d6a695f6769U, 0x6b696c686b6c5e6aU,
  0x6f6b757c657c6c6bU, 0x6f81787267657670U, 0x63756a67706a7670U, 0x7268716676706666U,
  0x7879786e6484756eU, 0x7771806c697d7472U, 0x816b656c69696084U, 0x716e6e757b677869U,
  0x756680736170716dU, 0x7d8176786c6f7c7aU, 0x6f78596f6c697085U, 0x7c63735f816d7165U,
  0x6e64737c677e727cU, 0x697d697276667272U, 0x77676d6879587187U, 0x7c7c6b627b6d7073U,
  0x757a7d726f756d72U, 0x687762756b727771U, 0x7a73656b7260717aU, 0x8067735d7b6f7575U,
  0x7671756c7c797d74U, 0x67696d7e6c6b706eU, 0x70745c6c775c7177U, 0x6c7273657a76736fU,
  0x73716f736c7a7d71U, 0x69716b7c60727d73U, 0x757c606b6a5f7784U, 0x6c706d618369646cU,
  0x757e7a776e907274U, 0x757b69746c7c6f6bU, 0x74825c6971647a6fU, 0x6d6177597a707770U,
  0x778f716f79787373U, 0x6a84706e7373786fU, 0x6e8769767a617973U, 0x6e6e72646d7e7870U,
  0x6d89746a687f7375U, 0x727e79666a748678U, 0x79765b726f71716fU, 0x6d62655d73756c6bU,
  0x726d6e727a73816fU, 0x737d7571667a786eU, 0x7a815f6a6b5f7d74U, 0x70597463747a786bU,
  0x6c71726e726e7375U, 0x6e726d6b756f6e73U, 0x7077717374706e6cU, 0x706d6f746e76726fU,
  0x727375726e736b6cU, 0x776d74717471736cU, 0x776d726f6e757478U, 0x766f737273727170U,
  0x6d75706b6f706c72U, 0x7475756e746c7172U, 0x6e6c7270706e6d73U, 0x737074717272756eU,
  0x756e6e7577747370U, 0x756f76746b766e70U, 0x6d706f71706f7773U, 0x74766c6e70706f75U,
  0x7371706b6e706f73U, 0x6e706d7171787074U, 0x73716f706b787375U, 0x727175736f767574U,
  0x726f746b74717078U, 0x72736d766b707170U, 0x6f7270756f767076U, 0x746e73716f706e73U,
  0x706d70736b6c7676U, 0x6b6b737674786f71U, 0x746e726d6f6d6c75U, 0x6b76726e6f6b736eU,
  0x736d75756b756d6dU, 0x6e747570726f6f6dU, 0x6c76737472747174U, 0x716c7373726c6d76U,
  0x716f70727070706eU, 0x716b7473726d726cU, 0x736d71727574706cU, 0x6d6f726e6c70706fU,
  0x716d6f737171746cU, 0x72726f766b6f6f71U, 0x6e6e75706d727474U, 0x71737672736d6d71U,
  0x6c6f6d736f747271U, 0x716e707473787574U, 0x7373766e75727276U, 0x6c726f6e77737276U,
  0x746b6f7070756e71U, 0x706c6f6f6e737473U, 0x75756e706b6c7671U, 0x7575746f736c7477U,
  0x756b757470726f71U, 0x6b71746c73747370U, 0x6c6d7573716d746eU, 0x726d746e6f706d75U,
  0x6d7171736e6d766dU, 0x6b6c726d6e75756bU, 0x6c6b7170766d6e76U, 0x7271706d74726f6dU,
  0x7273746c6d746e72U, 0x7071716e72727873U, 0x6e736f6e71726f76U, 0x76746e6c7173706bU,
  0x70746f6f6e727372U, 0x736d7572746c6f71U, 0x766e75766c6f7373U, 0x716c717071716c76U,
  0x746e746e70716e6eU, 0x74727173766d7573U, 0x746d6f6c6c6d6e6bU, 0x6d756f6d72756c73U,
  0x6f75746b7076726dU, 0x736c75746e6f7173U, 0x6f6e74726c756e6eU, 0x7570716d6d727575U,
  0x7171716e71746d6fU, 0x756b7673756e6c71U, 0x76756c7172727678U, 0x7470756e7272746dU,
  0x6e6c716e706b736eU, 0x7271736b6f6b7675U, 0x767372736f6b6c6eU, 0x7378777271717373U,
  0x726e76746f6f6e73U, 0x6c6d6f736d737471U, 0x756f6e74706d7070U, 0x6c72737375746d70U,
  0x7070736d6e6f7374U, 0x726b736c6f727070U, 0x746d6d6e746c7177U, 0x757376726e74756cU,
  0x76757174756f7576U, 0x71706d6e6d747171U, 0x7574706f74747570U, 0x70726f707575726cU,
  0x73756e706b766b6cU, 0x706f71726c6c7172U, 0x70726e72736f7174U, 0x716b777074726c71U,
  0x6f6e736d77727171U, 0x6c7074736f76726cU, 0x746f7471716f6f6dU, 0x736d71756c73776fU,
  0x6d6d727572706f6fU, 0x726d737271767271U, 0x73736c6b72746b78U, 0x6e6e6b6e74746d72U,
  0x7574716e6d6e7372U, 0x6e726e736d727074U, 0x716b756d6e706f6fU, 0x6d736f716c74716fU,
  0x6d73726e766e7175U, 0x6f726e736e74736fU, 0x7371717371746e70U, 0x71766e746c706e70U,
  0x6d7472746f76756cU, 0x70737273736e6b70U, 0x7275766e706d7574U, 0x6e6c7375736e6b72U,
  0x7071756c72726b70U, 0x6b6a6e6b716f7575U, 0x746d74706d746c77U, 0x6c726e6d746e6e76U,
  0x6d7270736c6f6d71U, 0x6b766d6b7372766cU, 0x736d6b7472716b6dU, 0x6c736e7272717670U,
  0x746e746b6c706e74U, 0x70776e706d777575U, 0x7170707371717074U, 0x75756d6b75747170U,
  0x6c6b74716e6c736eU, 0x736e70787577726bU, 0x7576757275716e76U, 0x73736e6c75737171U,
  0x73736e6e6d717471U, 0x746c6e716e756b6cU, 0x7173716e736e736fU, 0x756c71756c6b6b6bU,
  0x6d6e6d706e6f6e75U, 0x716f6d7174766c6cU, 0x736b777070787071U, 0x6b756f757376726cU,
  0x706f6f73756f706eU, 0x6e706f73736f7170U, 0x7171737174737176U, 0x6e6d6c726b6c6d71U,
  0x6e6e75726f6e7375U, 0x727574766f6d6e70U, 0x6d6c6e70756f716fU, 0x76707675736c6b6cU,
  0x6b75706c73726f6fU, 0x6e6c6e73746c6e73U, 0x6b6d746e7174766cU, 0x746e736f6e6c716fU,
  0x75756c6c71706f6bU, 0x78726c6f6f6c6b6bU, 0x706c6d73766e6d75U, 0x6c6e6d726e71746dU,
  0x7470716d6c757771U, 0x707872706f6e756dU, 0x6b7475726e736d70U, 0x726d6d726e74716fU,
  0x70736b6e756c6b6fU, 0x75716e6d716d746cU, 0x6d756c747174706fU, 0x74706f7574706b6eU,
  0x6f75767371737270U, 0x70746f776d6f6e72U, 0x6d7270736c75706dU, 0x75706b72726d6c75U,
  0x6b737571706e6b6dU, 0x6e6f706e74757274U, 0x727473716d6f7070U, 0x736f7571766f746bU,
  0x726c6f7270717375U, 0x7171726c766f7470U, 0x7476727170726c75U, 0x7076726f76726d6eU,
  0x736c6e7573737070U, 0x716e6f6e6d776e74U, 0x706f706c706e6b72U, 0x756b716b716c6c72U,
  0x6c6f707275756d73U, 0x716d6b766f706d74U, 0x7775766b6e6e6e78U, 0x72706f6f726e716fU,
  0x6f74757270726d72U, 0x7573736f6f766f72U, 0x7573726e73707274U, 0x6f6f746e74716e72U,
  0x6f7275706f737475U, 0x716e6c766f6e6e75U, 0x7274756c73766b73U, 0x6f6e74747571786eU,
  0x716c7072756f716eU, 0x7277766e706d6e70U, 0x6e756d75736c6d73U, 0x6d707178776f7376U,
  0x73736d6c70746b73U, 0x717673756e746e6fU, 0x7478746e756e6b71U, 0x6d6d74746c74736eU,
  0x6f6d6b7472736f70U, 0x6f746c6f716f7672U, 0x74767573706e6d71U, 0x6b6b6f756e707072U,
  0x746c756b78747574U, 0x6e6e767275767677U, 0x72707376746b7170U, 0x726d6f6f7574716cU,
  0x7177736b70717172U, 0x6b6e6c6e6f6d6e6bU, 0x71726d766b717474U, 0x706b7171766f7072U,
  0x6c736f746f6f726fU, 0x727071747075756fU, 0x7071726d6c747577U, 0x76736d746f6f6d71U,
  0x716e726c776f706fU, 0x6c6f756e6d75776bU, 0x756f717176767675U, 0x6e6f6e6d70726e73U,
  0x70706b6f6c717570U, 0x767076716f706f6fU, 0x6e76716f73716d73U, 0x71766f6e70727476U,
  0x7575746d746f7377U, 0x77756c6e75766a71U, 0x7276707370736e72U, 0x7877737571716d72U,
  0x7075756f72736e70U, 0x6b766f707275726eU, 0x706b736d706e756fU, 0x73746d70746d7074U,
  0x6e74746f77706c75U, 0x71726b6c6c716f6dU, 0x706c716f7370756dU, 0x6e717675706d7073U,
  0x6d74756d74717274U, 0x707373746f6a6c75U, 0x6e6d736b72766e71U, 0x706c70766b74736cU,
  0x74786b74706b726fU, 0x7473706f72736c71U, 0x7572706f736f6e6dU, 0x6e73706e7475746fU,
  0x7471706c6b6f6c6fU, 0x73746f747376756bU, 0x7571717576706f77U, 0x6c6f746c76707073U,
  0x6b73736a6f746f6cU, 0x71767074766f716fU, 0x75756e6e756c7674U, 0x726f6d6e75747573U,
  0x756e727274717671U, 0x6b6f75736c6c6d6eU, 0x73716d72746c706dU, 0x6c7575716e74706bU,
  0x6d777173726b766bU, 0x6e6c6e6c75756e73U, 0x7373737771717571U, 0x6f766d6b736e6d6cU,
  0x706f716f70766f71U, 0x756d7574746c736eU, 0x6f75746d766c6f70U, 0x6e74746e76747472U,
  0x73706c7671737474U, 0x7070757575736e6cU, 0x736f7274746e6e70U, 0x6d75736d7075726dU,
  0x6f746c7574736b74U, 0x6f72757275767372U, 0x6e6c6e736e6d7370U, 0x7370766e746f7176U,
  0x77746e727177736dU, 0x6f77756f74757370U, 0x767475746f777573U, 0x706c6c737475716dU,
  0x75756e6c6e6d6f6cU, 0x72756b6b6b746d6eU, 0x6e6d6d767170716eU, 0x6b756d776d716f76U,
  0x78776d736f707076U, 0x6f766e6c7571786dU, 0x6c6c736e73727470U, 0x6c6f7478726b6c77U,
  0x6d75756f7471756fU, 0x6f73707271737571U, 0x727072746d71756bU, 0x6f6c736b7670706eU,
  0x7572717472706b6dU, 0x7075717073716d74U, 0x6f6f71706f777776U, 0x6e6c6b74706d6d6cU,
  0x72756d727373756dU, 0x70756c707172756eU, 0x7374717275776d72U, 0x737272706d707073U,
  0x6d6e707775747076U, 0x77717472706e7170U, 0x6b7374706c6c7072U, 0x70766e71746b6f76U,
  0x6f6d7373736f706dU, 0x6e6d6e726b726d73U, 0x6b6d6e6b7573766cU, 0x6e73707574757274U,
  0x75706b73736f7271U, 0x6b6d6b737471726eU, 0x6b73756b72707474U, 0x6f75706d7674726cU,
  0x756d6b6d756c7075U, 0x7370756f76776c73U, 0x756b6e777873716cU, 0x746e76737171756fU,
  0x75776e74756d7271U, 0x6e72747576787671U, 0x6b746b707772736dU, 0x71756f6e6c6e7375U,
  0x6b6e6f6b756f716fU, 0x70757574756e7671U, 0x6e756e71706b746bU, 0x6d716f6d6f6f726bU,
  0x76746c6c716b7275U, 0x6b75747271747375U, 0x75756e736c736c71U, 0x736e7477726d6d6cU,
  0x7471716d76757570U, 0x726e726b716f6f6eU, 0x71706f786e70726fU, 0x6f6d7170726d7271U,
  0x7571757375716f6cU, 0x6d6f727571706d75U, 0x756d75767273706eU, 0x776d71746e6d6f72U,
  0x766d737373766c73U, 0x6c7572726d6d7073U, 0x6d7575756c727374U, 0x706d7371746b6f6dU,
  0x6e6b6e7174716e71U, 0x7671746b76747572U, 0x6e7371736d707372U, 0x72787875746e706bU,
  0x706d72767473746aU, 0x6c706f6c6e767174U, 0x6c6f716f706d736cU, 0x6c76726f75717474U,
  0x6b6c6c6f756e756eU, 0x72706d746b6f736cU, 0x75776f6e6f756b75U, 0x70746f6c726c7373U,
  0x746d756c716d7574U, 0x71717474706c7075U, 0x756e717374717070U, 0x74746b6d6d736b70U,
  0x6e6c6c7477717174U, 0x70716d706c6b746fU, 0x6d76727172726f6cU, 0x70726b6f72736c74U,
  0x6f6c767574716e6dU, 0x6d726d736c6e6e6dU, 0x716c71767171756eU, 0x74726f766e757371U,
  0x70707372716e6e71U, 0x6c736b6d6e72716eU, 0x74746b6d6b6f7272U, 0x6d717572726b6c75U,
  0x706f6e6e6c6d6f73U, 0x746f6d7570706f6dU, 0x716f71746b726d72U, 0x7472707171726f74U,
  0x6c72756e70756e75U, 0x71736e7573736e71U, 0x7573746b73707574U, 0x787077746b707473U,
  0x747076716f72716eU, 0x786b7176706f6c73U, 0x7671707370726c74U, 0x75746f6e706b6f73U,
  0x6b6c716c6f6f6c73U, 0x6b6f746d726c7074U, 0x6f726e727471766dU, 0x7173716b71766b71U,
  0x6b746c6c6d736b70U, 0x766f73706e75736eU, 0x756e7170706f6e72U, 0x6c726d6d706c726eU,
  0x7470706e6f736c6eU, 0x776f6e726f6f756dU, 0x7670727374706f71U, 0x706b6f6d756f6c73U,
  0x6c6f706f74707170U, 0x6b736d706f756e72U, 0x7571756c746d6f72U, 0x70716d73716d6c73U,
  0x71726e6b6e75716fU, 0x707371757574736bU, 0x736f6f766f6f7074U, 0x6f6f6e70746e7473U,
  0x6b746e756b727671U, 0x72776f72726f786dU, 0x727473736c776e72U, 0x7270726e6d6d746fU,
  0x6b77716d706f6f6fU, 0x716a756d7075706cU, 0x6d746d72706c6e70U, 0x74726f726b6c736eU,
  0x7175736c6f6e726eU, 0x746b786c71717373U, 0x736d716f6d776f71U, 0x706b756e75767471U,
  0x7773756c6f737574U, 0x726e746e6d6e6d73U, 0x6f72726d6d756f71U, 0x6f7574706e767573U,
  0x6e6d6e6f70766d70U, 0x7574737170777370U, 0x6d776c6e74747275U, 0x776d6d6f7175736fU,
  0x726f777074716c71U, 0x746d72756e6d6c70U, 0x74766e727175756fU, 0x75766f706c6f706fU,
  0x70756e6f6f787872U, 0x746e706b73787274U, 0x7070706f74726c6dU, 0x7073786d7673736cU,
  0x747270756e766e6bU, 0x6e71766f72706c77U, 0x6f717374766d7075U, 0x6e73726d71737273U,
  0x716f736f75757474U, 0x6c726f7476737671U, 0x73786d71726f7475U, 0x71776c6d766e7073U,
  0x74726f7675737074U, 0x756f736e7371776dU, 0x766b6c7273706b72U, 0x6d7475756f716e6dU,
  0x707575716c707275U, 0x706e726f75766d77U, 0x7671736e736f7471U, 0x76727674716d746fU,
  0x6c706b7575747072U, 0x757172766e767876U, 0x736e6d7876717070U, 0x6b6e726b736f7570U,
  0x747075736f6e6f6cU, 0x7478707575747573U, 0x707372766e716e6eU, 0x6b6e72746e766b71U,
  0x7374756d76777076U, 0x737370736d726f6bU, 0x6e756e7670716d77U, 0x70716e6e756e736eU,
  0x7677717371747774U, 0x6e776d6e7572716cU, 0x7078727575756f6eU, 0x6e7174706f72706fU,
  0x6d75756f7673716eU, 0x757573726c6b7275U, 0x75736f776e737576U, 0x706a746c6d6e7072U,
  0x7374737173737570U, 0x737176726d6f7474U, 0x7078747674767076U, 0x73726f787272786eU,
  0x756c6c6e746d7074U, 0x6d6e6c7473747174U, 0x6f75706c756d706eU, 0x736e71766f70766fU,
  0x74736c7072766d6eU, 0x7471737172737075U, 0x726b6c716c6e7374U, 0x717676756c6f7175U,
  0x6b6f727873747870U, 0x71726c7175727771U, 0x75727572756d746dU, 0x6d706f726c6c6e71U,
  0x6e6d716f6f726d6cU, 0x6e71756d6f717574U, 0x6e6c70726e76706eU, 0x6c6d6d7271756d70U,
  0x73767470716f7572U, 0x6f74726e746d6d6fU, 0x74746f756b70726bU, 0x766f706f716d736dU,
  0x6e74706d71746c6fU, 0x7770787273757071U, 0x726d766b6e726d75U, 0x7472787274746c6cU,
  0x727076747774766cU, 0x7673756f7571706eU, 0x75776d7373756b6dU, 0x736e726c72757475U,
  0x707074767177736dU, 0x6e7170706f76736bU, 0x74757270706e6d70U, 0x6e756b6b6f707471U,
  0x6f6e706f6e6e746cU, 0x7273756e6e6f7270U, 0x7576716e766f6e73U, 0x75716b6b6e6d7374U,
  0x6f74737170756c75U, 0x716f756f76786c75U, 0x77716b7573736c74U, 0x6b6c7072716e7672U,
  0x736f7871726d6e75U, 0x6e7473776c777170U, 0x737175726c6e7276U, 0x6e76767674756d73U,
  0x736e726d6f72736eU, 0x76766c726e74726bU, 0x76717177706e7470U, 0x6e716f71706d6f72U,
  0x6b746d6d76716f6eU, 0x746f756c746d7571U, 0x70776e6f6e756c78U, 0x6d72706c756c7078U,
  0x706d6e6d71737571U, 0x7673766e7470716dU, 0x6f766b727573706fU, 0x6f6e727572727470U,
  0x726c6c6c6e6f766cU, 0x72707574746d6c77U, 0x6d6e73746c6d7670U, 0x706f6c7474737574U,
  0x7071756d6f766e6fU, 0x767370707576736fU, 0x787471767073756eU, 0x7076756f706b7473U,
  0x6f6e726e6b717170U, 0x706c7375706f7272U, 0x6d6f726f6d706c71U, 0x72717470766c766eU,
  0x6e716e6d706e6b76U, 0x756b6f726b6c7174U, 0x766e6e74716c7371U, 0x71746f6c6b737472U,
  0x6d73706d6f746c73U, 0x7170736d73746f6fU, 0x7873776d7377776cU, 0x6d6d736c7071736cU,
  0x71736b6d756f6f74U, 0x6f7373726c747374U, 0x72766c7070726d6eU, 0x746a707476717075U,
  0x71716c6d7373736bU, 0x71736c6f6e756e72U, 0x727674746f746a76U, 0x74726d6f6d757471U,
  0x72786f6d7575766bU, 0x6d6c6d6f6d6e6f6bU, 0x77746d756d6e7176U, 0x6e6d717574757474U,
  0x6e74736f6c707070U, 0x6e747170706e6c6fU, 0x7471767372717270U, 0x6c726e707473746cU,
  0x737775717672706eU, 0x766e6f6f6f6c736eU, 0x6e7672706d757071U, 0x726e6c6c746c7773U,
  0x717371716e6d6e6dU, 0x787076716b746c76U, 0x746b71786c736f70U, 0x6d787270716b6d76U,
  0x7373726b6c6f7173U, 0x726c6c726c6f6e6dU, 0x6e7672777274726aU, 0x6f6d736c6d6c6c6eU,
  0x7174716e76706f74U, 0x74766f74746d6e6dU, 0x6e737475726e7073U, 0x73736c6f6f6c6d6cU,
  0x6c74707470756d6dU, 0x72757271736f6c70U, 0x6d7072726e71746dU, 0x6c6e76726c71746cU,
  0x6c6b6e6a75757471U, 0x7273746e6d6f7274U, 0x6c6d6f726f6c6f6eU, 0x7374776d706c6c6cU,
  0x75716b72726f6f70U, 0x7376746d72727570U, 0x7075706d7074756eU, 0x7478756e6e6d7772U,
  0x756b726f776f736fU, 0x6c6f6b7374726c71U, 0x757670766d777174U, 0x71706e707673726eU,
  0x737378726f6f756cU, 0x6e7670746f746d6dU, 0x75736f746e716f78U, 0x6f73756c706b7771U,
  0x737674746c756b6bU, 0x707670746c6f6e75U, 0x6e6e71736f6f7373U, 0x71756d75746e6e72U,
  0x6f6f6c706e736d73U, 0x6f746b6d7274716bU, 0x717074726b766f71U, 0x70726c6b706d7070U,
  0x72786f75746f7074U, 0x6f6c757374766c6cU, 0x6e716e6b726f7076U, 0x6d71716f75717071U,
  0x737178736f716f73U, 0x767773766c6d7472U, 0x6e706f6e6b706e6eU, 0x6f7372706b6b6d72U,
  0x73737671706e6e70U, 0x6f6f70746e6e6f6fU, 0x726f6d757174736eU, 0x6d6f7074756e7670U,
  0x6e6e6b6d6f737472U, 0x70757071716d6f77U, 0x756b6c747873756dU, 0x6c7477737572756dU,
  0x70727274746f6f6fU, 0x736e6e736f776f6dU, 0x776d717570727773U, 0x716d6b7075727074U,
  0x72746c6b706f6b73U, 0x74746b716d6b6f6eU, 0x6b726f7376726b72U, 0x6d74736e72726e6eU,
  0x6f72756e7070726fU, 0x746f6f756e6c6c75U, 0x7576736b6b75726cU, 0x70747073746d6f6cU,
  0x6d777473746e7374U, 0x6f6d6e6f73736e73U, 0x7072716e6b746c76U, 0x716c6d6e6d757674U,
  0x6e706c726f717171U, 0x6f6e6e716d6e6b71U, 0x747871746e6c746eU, 0x6d7072706e706b6eU,
  0x6b70726b6d6e6d70U, 0x787078756b6e6c6bU, 0x6e76706c75707374U, 0x766f6b7070746b6eU,
  0x7172706b6e6c756dU, 0x716f6c6e6d72746eU, 0x6f6f716b6d6e6b72U, 0x6b766d6d736e6f74U,
  0x6c76726c716d726cU, 0x6f73707275756f72U, 0x6f7071736f71716fU, 0x6d6f6f6c6f737270U,
  0x7571726f72726e76U, 0x6e726e74756d736bU, 0x7675736c716f6b70U, 0x716b72736c6c6d76U,
  0x75736d706f6f706dU, 0x757671726b716e6bU, 0x70746f6c6f717372U, 0x70726c7670757273U,
  0x706e7470746e7372U, 0x757673736c716c6dU, 0x6e6d756e6b736e6fU, 0x6f6b776b726f726bU,
  0x756d7370756e7270U, 0x6e726d77706e7172U, 0x757371706f717674U, 0x716d77706e70746eU,
  0x716c746e706b726eU, 0x72746d6e6e716f6dU, 0x76756f72746d6f71U, 0x6c6f73706e6e7373U,
  0x6f756f726c716f75U, 0x74706d716c737375U, 0x6f7075716f6f7272U, 0x6e706e726d6f6c72U,
  0x75766b6c726d706fU, 0x72746c6b6e767271U, 0x6f736b756e736d6eU, 0x7671716f706b7572U,
  0x70757571746b6c74U, 0x746f6f7575726e71U, 0x6e6c6c7372727571U, 0x6f726f6e716d6d75U,
  0x72706d7372727174U, 0x736f7070726c716cU, 0x726b7170746c726cU, 0x7370767574717171U,
  0x6d74737373727071U, 0x6f72727171757473U, 0x6c6f727273717071U, 0x6d756f7071737170U,
  0x746f7172756d6f71U, 0x6d6f6f6f756d6c6eU, 0x75756e746d6b7175U, 0x766c717374737376U,
  0x756d736f73706d6fU, 0x726c70757370736cU, 0x7171736f716e7673U, 0x747575736d757172U,
  0x6b726b6d7376706cU, 0x6c6e6c6c746d6b6cU, 0x6c716e7472726f6fU, 0x736b6f736d757070U,
  0x6c6f706c70756c74U, 0x6d716d6b73706d6eU, 0x71766d756e706f6bU, 0x6c6b74726c6c7571U,
  0x6d706c6d6d6e6c74U, 0x6d6f6c7673727274U, 0x6c756d756c716b72U, 0x726c7172716e746eU,
  0x6d6f70717474746fU, 0x716e6f757472706dU, 0x74736d726d736b6dU, 0x6f766e75716e7576U,
  0x746d6c716f74706eU, 0x6d6b756f71737173U, 0x6c716f7171706f76U, 0x6c7273756e766f6bU,
  0x6d706f6d6e756c71U, 0x6f767676706e6e72U, 0x7475746f6d6d7070U, 0x707471736e6e736cU,
  0x6f6e72706c6d6f6dU, 0x716b787475716b72U, 0x70727373746f6c76U, 0x71726d747272746eU,
  0x6d7774736c6e7676U, 0x726e74737375706bU, 0x72746d6c766b6f70U, 0x6c6e747270766c72U,
  0x73716c7274716d6fU, 0x6c776f74746f746bU, 0x7470736b71757373U, 0x6c6c6d736e6d6f74U,
  0x71736e6f72726d6dU, 0x736d7571746f6c72U, 0x726e6f6d6c716d73U, 0x6e76706f6d746b74U,
  0x75726f6f70716d71U, 0x6e73726e6f716b6dU, 0x74716f6c6c707075U, 0x73726c716b707173U,
  0x7071736c6c6e716dU, 0x6d6c73706f777473U, 0x71716c7275716d6cU, 0x776e6c6b6c6c756dU,
  0x736d70706f736e75U, 0x756d6e71746d736eU, 0x71756f6d6d70726dU, 0x776e75767271766cU,
  0x70716b7273726c74U, 0x74727371726f6f74U, 0x70717174766e6e75U, 0x6e6e736f70736e71U,
  0x70746e7074726e6dU, 0x726b6d6d70767473U, 0x73786b6a6d6d7475U, 0x7773777375717271U,
  0x75716e756d74746fU, 0x6e6f6f726e716c6cU, 0x6e717275756f7573U, 0x6f70766c74756b73U,
  0x71767875746f736dU, 0x727072716c6f6f6cU, 0x6e73716d7472756cU, 0x6f6c706d74727671U,
  0x6c6f71766d6d7272U, 0x6f75716e6e75726fU, 0x6f716e75766b706fU, 0x7170756c6c707275U,
  0x6c736e7473767370U, 0x71726d75716d7372U, 0x72756c726d6c7373U, 0x6e7274727374716fU,
  0x6d756e7574726c6fU, 0x71766f6e6e717473U, 0x707571706c6c7470U, 0x7670707070756f74U,
  0x7172766d6d757271U, 0x726d6d6e6f726e73U, 0x70746e747471756eU, 0x716e7471736f6f72U,
  0x74706d6c78727371U, 0x6b736f786f6f6e75U, 0x726e6b6f6b727175U, 0x736b76726f746e73U,
  0x6f7374726d767175U, 0x746f706f72707373U, 0x7571737073747270U, 0x746d74766c73756dU,
  0x6f6f6c6f746c6f6bU, 0x76767774746e7073U, 0x77716d766b707478U, 0x71756f6e6b6e6d72U,
  0x6e6c746f6e6e7072U, 0x6b6d6b6d6b6f6c72U, 0x72736c6e736d7570U, 0x716c70716b6b726cU,
  0x6c7172716f737571U, 0x6b747575716e6b75U, 0x706d717472756d6bU, 0x6e757376706d6d71U,
  0x756e6d6e706c716dU, 0x6f6f727271716b74U, 0x6b6c767273707276U, 0x707072736b746b75U,
  0x706f6e6e75747371U, 0x6f7274727071766eU, 0x6d6d7172706f7474U, 0x6c72716b73706d75U,
  0x6b71726f71706f6bU, 0x6d7371766b75726fU, 0x6e736d756c70736fU, 0x7373746d6d6c6d6dU,
  0x6c747176756f6b73U, 0x746f767574737571U, 0x727173736b6d7077U, 0x716e6c716e6b7572U,
  0x6f6e7370716c706eU, 0x6e736e7275736c73U, 0x6c74706b6c6e7271U, 0x73746b6f6c6f7271U,
  0x7573707275717470U, 0x6c737673726f7075U, 0x75726f7272747175U, 0x6d6c6f74746d6f73U,
  0x73716c6d6e76736eU, 0x7770766d756c7171U, 0x707371786e787676U, 0x6e7574746b6f6c75U,
  0x716b777574756e73U, 0x707072747473736fU, 0x736e7270736f6d73U, 0x6c74726f6e746c72U,
  0x6d75726c6e6e6f6dU, 0x6f71707371766d74U, 0x6d726b746d73716cU, 0x6e71716c6b6e6f6dU,
  0x6a6e6d7071707175U, 0x6f726d6c75707174U, 0x6d7170746c72756eU, 0x7473786b6e6b6b73U,
  0x706c7173736c7274U, 0x71746c74746d6f72U, 0x766d756e6b727372U, 0x70716e6d716e6e75U,
  0x7475736e73756c72U, 0x767375726e736d75U, 0x6c75756d6b746f74U, 0x747270756b6e716cU,
  0x6c7871756c6f6b74U, 0x766e6d706c6e6d6eU, 0x7271756c706d6b75U, 0x6c70717472736e75U,
  0x73716f6b77717370U, 0x6d71727172766d6cU, 0x6e6e706e73746e6eU, 0x776e746f6c716f70U,
  0x6f786f726b746b74U, 0x6c72736d76716e76U, 0x6e7376776e71736eU, 0x6d746e756e746d72U,
  0x757470706f75736fU, 0x6e73727470716f6bU, 0x717271756f75746dU, 0x746e73766e707471U,
  0x736d71756c746b73U, 0x6d6e77726e706b73U, 0x7375757476766d72U, 0x716f6b7177726c72U,
  0x72746f6f70746b74U, 0x746c726f7675746dU, 0x6f726f6e746c7472U, 0x7773716e6f6c6d73U,
  0x7073716e73786e71U, 0x76766c6c756f6c6bU, 0x706d6f736e726f71U, 0x777270706c726f74U,
  0x74707574756e6c6dU, 0x6d72736b6f6f766cU, 0x6b7172786c757572U, 0x7476766e6e706f73U,
  0x6d71707374707575U, 0x6f71767374727573U, 0x716f6f73736b6d74U, 0x6b716f6e6f726e75U,
  0x767273706d707276U, 0x6e6d6e6e70707372U, 0x726c716b716e6f75U, 0x716d717275727271U,
  0x716e75726e746d70U, 0x6b716d75706f7076U, 0x70716d6d71706b6eU, 0x6d6d706f6d76716cU,
  0x6f70716b746c6c70U, 0x757274766c766f71U, 0x72746f736e6d7571U, 0x756f70746c717374U,
  0x72716d6d71707072U, 0x74736e766c716e6bU, 0x736c75706c717475U, 0x716f6d776e747276U,
  0x736c736b6d6d6f6cU, 0x717276716d756f6bU, 0x7574766d6f746f75U, 0x74766d71706b7574U,
